<pad>	0
<unk>	0
<s>	0
</s>	0
何处	-0
▁一	-1
不知	-2
春风	-3
万里	-4
白云	-5
人间	-6
青山	-7
明月	-8
千里	-9
风吹	-10
不见	-11
今日	-12
风雨	-13
无人	-14
梅花	-15
秋风	-16
东风	-17
▁山	-18
江南	-19
故人	-20
平生	-21
不可	-22
如何	-23
十年	-24
夕阳	-25
归来	-26
▁春	-27
▁天	-28
西风	-29
可怜	-30
不是	-31
流水	-32
桃花	-33
回首	-34
相逢	-35
当年	-36
▁不	-37
相思	-38
何人	-39
风流	-40
白发	-41
落日	-42
天涯	-43
江上	-44
月明	-45
百年	-46
悠悠	-47
乾坤	-48
何事	-49
天地	-50
山中	-51
萧萧	-52
年年	-53
寂寞	-54
何如	-55
清风	-56
不得	-57
不须	-58
杨柳	-59
归去	-60
▁三	-61
江湖	-62
扁舟	-63
落花	-64
一片	-65
千古	-66
何时	-67
▁秋	-68
▁小	-69
花开	-70
芙蓉	-71
白头	-72
谁知	-73
▁我	-74
芳草	-75
行人	-76
长安	-77
纷纷	-78
▁江	-79
先生	-80
分明	-81
人家	-82
▁风	-83
▁南	-84
▁万	-85
▁云	-86
一枝	-87
春色	-88
白日	-89
□□	-90
千年	-91
如此	-92
▁日	-93
不成	-94
当时	-95
斜阳	-96
▁老	-97
▁玉	-98
不如	-99
今朝	-100
黄金	-101
▁自	-102
多少	-103
▁雨	-104
岁月	-105
何日	-106
千载	-107
江山	-108
无限	-109
▁水	-110
天上	-111
天下	-112
徘徊	-113
不能	-114
一声	-115
昨夜	-116
▁白	-117
▁东	-118
处处	-119
惆怅	-120
不堪	-121
▁大	-122
君王	-123
▁高	-124
主人	-125
少年	-126
文章	-127
花落	-128
一夜	-129
▁清	-130
秋色	-131
日月	-132
十里	-133
▁古	-134
何须	-135
▁野	-136
浮云	-137
桃李	-138
谁能	-139
一笑	-140
自有	-141
几时	-142
将军	-143
风尘	-144
▁西	-145
日日	-146
黄昏	-147
日暮	-148
▁人	-149
至今	-150
茫茫	-151
▁青	-152
美人	-153
▁五	-154
空山	-155
夜深	-156
从此	-157
如今	-158
登临	-159
山色	-160
▁长	-161
黄花	-162
不用	-163
有馀	-164
▁金	-165
相对	-166
梦中	-167
相见	-168
惟有	-169
门前	-170
故园	-171
明朝	-172
消息	-173
烟霞	-174
不到	-175
第一	-176
从来	-177
十二	-178
▁昔	-179
千秋	-180
无事	-181
故乡	-182
无心	-183
三年	-184
无一	-185
读书	-186
深处	-187
细雨	-188
今年	-189
▁客	-190
新诗	-191
不胜	-192
此日	-193
草木	-194
安得	-195
▁花	-196
▁海	-197
江水	-198
一时	-199
▁月	-200
▁石	-201
年来	-202
▁夜	-203
何必	-204
终日	-205
山下	-206
岁寒	-207
今夜	-208
幽人	-209
春光	-210
谁家	-211
世间	-212
山川	-213
别离	-214
青青	-215
相看	-216
神仙	-217
不为	-218
此地	-219
何曾	-220
依旧	-221
此时	-222
功名	-223
去年	-224
重来	-225
伤心	-226
不尽	-227
落叶	-228
山水	-229
万古	-230
凄凉	-231
人不	-232
无端	-233
▁四	-234
几度	-235
殷勤	-236
春来	-237
门外	-238
南山	-239
几人	-240
秋水	-241
楼台	-242
看花	-243
世事	-244
▁君	-245
▁百	-246
一曲	-247
▁有	-248
生涯	-249
中有	-250
寂寂	-251
西湖	-252
风月	-253
沧海	-254
古人	-255
柴门	-256
仙人	-257
洞庭	-258
▁寒	-259
明日	-260
青天	-261
红尘	-262
题诗	-263
鸳鸯	-264
▁谁	-265
翠微	-266
太平	-267
人生	-268
何年	-269
依依	-270
▁黄	-271
寂寥	-272
一杯	-273
为谁	-274
蓬莱	-275
依然	-276
东西	-277
尽日	-278
三月	-279
古今	-280
自是	-281
▁十	-282
此身	-283
阑干	-284
无穷	-285
▁独	-286
茅屋	-287
无处	-288
无情	-289
▁闻	-290
参差	-291
雨过	-292
山林	-293
多情	-294
春水	-295
无复	-296
出门	-297
不敢	-298
只有	-299
▁九	-300
不似	-301
▁新	-302
苍茫	-303
▁莫	-304
孤舟	-305
何所	-306
诗人	-307
萧条	-308
此心	-309
几回	-310
烟雨	-311
青云	-312
万事	-313
车马	-314
燕子	-315
秋声	-316
犹未	-317
南北	-318
英雄	-319
▁朝	-320
与君	-321
梦里	-322
来往	-323
中原	-324
风光	-325
不相	-326
无数	-327
云山	-328
无言	-329
▁绿	-330
西山	-331
▁雪	-332
有人	-333
海上	-334
尘埃	-335
犹有	-336
游人	-337
不同	-338
▁北	-339
千山	-340
一日	-341
一年	-342
若为	-343
林下	-344
悠然	-345
▁欲	-346
匆匆	-347
黄叶	-348
零落	-349
飞来	-350
不识	-351
知音	-352
寻常	-353
归路	-354
何妨	-355
心事	-356
由来	-357
道人	-358
夜来	-359
草堂	-360
二月	-361
未得	-362
亦有	-363
君子	-364
纵横	-365
谁与	-366
苍苍	-367
▁竹	-368
灯火	-369
断肠	-370
千峰	-371
闭门	-372
使君	-373
何似	-374
迢迢	-375
不觉	-376
往来	-377
湖上	-378
独立	-379
一点	-380
咫尺	-381
不妨	-382
浮生	-383
漠漠	-384
何以	-385
不肯	-386
▁两	-387
佳人	-388
故国	-389
翩翩	-390
四海	-391
垂杨	-392
▁行	-393
三十	-394
衣冠	-395
几日	-396
画图	-397
高楼	-398
▁晓	-399
不作	-400
白首	-401
月下	-402
未能	-403
溪上	-404
此中	-405
一生	-406
月色	-407
不自	-408
有时	-409
夜雨	-410
不及	-411
为君	-412
富贵	-413
▁碧	-414
千金	-415
犹自	-416
▁旧	-417
他年	-418
三千	-419
松风	-420
时时	-421
潇湘	-422
山河	-423
何当	-424
烟波	-425
重阳	-426
▁为	-427
飘零	-428
夜夜	-429
▁红	-430
丹青	-431
于今	-432
凤凰	-433
▁忆	-434
儿童	-435
春雨	-436
风烟	-437
关山	-438
底事	-439
人心	-440
犹在	-441
▁孤	-442
杏花	-443
儿女	-444
一叶	-445
看山	-446
别有	-447
春草	-448
月上	-449
旧时	-450
经年	-451
绿阴	-452
云中	-453
到处	-454
不复	-455
江头	-456
溪水	-457
摇落	-458
知君	-459
无多	-460
▁远	-461
五更	-462
溪山	-463
王孙	-464
三更	-465
天寒	-466
今古	-467
苍苔	-468
岁晚	-469
秋来	-470
风云	-471
暮云	-472
往事	-473
沧浪	-474
▁曾	-475
吾道	-476
歌舞	-477
此生	-478
还家	-479
天子	-480
逢人	-481
何用	-482
未归	-483
东南	-484
精神	-485
夜半	-486
罗浮	-487
清明	-488
那得	-489
斜日	-490
无声	-491
更有	-492
江流	-493
白玉	-494
记得	-495
独有	-496
两三	-497
不曾	-498
不来	-499
▁上	-500
憔悴	-501
▁幽	-502
昨日	-503
我亦	-504
未必	-505
不解	-506
▁世	-507
临风	-508
回头	-509
▁无	-510
风波	-511
而今	-512
花香	-513
萧然	-514
珍重	-515
▁久	-516
水流	-517
海棠	-518
夜月	-519
年华	-520
百里	-521
来时	-522
满地	-523
公子	-524
游子	-525
水云	-526
酒杯	-527
马蹄	-528
六月	-529
花枝	-530
风霜	-531
千万	-532
风起	-533
湖山	-534
知己	-535
钟声	-536
风前	-537
无语	-538
载酒	-539
诗书	-540
逍遥	-541
一身	-542
他日	-543
水边	-544
一径	-545
颜色	-546
山头	-547
白雪	-548
朝来	-549
自知	-550
谁为	-551
雨后	-552
▁地	-553
五湖	-554
向来	-555
春寒	-556
为客	-557
几年	-558
不忍	-559
焚香	-560
寒食	-561
百尺	-562
三径	-563
自怜	-564
把酒	-565
知是	-566
老去	-567
雨声	-568
风景	-569
不在	-570
莫道	-571
今宵	-572
蹉跎	-573
▁半	-574
思君	-575
相望	-576
▁吾	-577
▁万里	-578
▁未	-579
▁紫	-580
天风	-581
晚风	-582
园林	-583
借问	-584
孤城	-585
应有	-586
时节	-587
登楼	-588
花飞	-589
桃源	-590
奈何	-591
五色	-592
洛阳	-593
知有	-594
肠断	-595
故山	-596
碧云	-597
菊花	-598
多病	-599
春深	-600
从今	-601
春归	-602
白鸥	-603
不禁	-604
月照	-605
远山	-606
我来	-607
马上	-608
▁城	-609
天外	-610
辛苦	-611
杜鹃	-612
梨花	-613
秋光	-614
▁霜	-615
梦魂	-616
诗成	-617
冥冥	-618
不归	-619
如水	-620
草色	-621
眼前	-622
世人	-623
如许	-624
梧桐	-625
月中	-626
此意	-627
人事	-628
别后	-629
容易	-630
▁千	-631
独坐	-632
中流	-633
飞花	-634
疑是	-635
那堪	-636
旧游	-637
风雪	-638
▁去	-639
▁生	-640
他乡	-641
偶然	-642
向人	-643
自然	-644
月满	-645
▁汉	-646
山云	-647
家家	-648
琵琶	-649
一水	-650
怅望	-651
风来	-652
为我	-653
临水	-654
▁二	-655
▁平	-656
不待	-657
行路	-658
青春	-659
莲花	-660
那知	-661
更无	-662
何在	-663
往还	-664
▁翠	-665
十日	-666
独自	-667
扬州	-668
▁已	-669
啼鸟	-670
家山	-671
自在	-672
重重	-673
风露	-674
正是	-675
人在	-676
是非	-677
今夕	-678
客来	-679
微风	-680
从容	-681
亭亭	-682
石上	-683
芦花	-684
日夜	-685
芳菲	-686
唯有	-687
极目	-688
▁龙	-689
冰雪	-690
山僧	-691
山前	-692
凉风	-693
随风	-694
▁晚	-695
竹林	-696
数声	-697
雨露	-698
东山	-699
不开	-700
江海	-701
老夫	-702
残月	-703
处士	-704
登高	-705
鸿雁	-706
云气	-707
君家	-708
清光	-709
▁病	-710
▁此	-711
同心	-712
牡丹	-713
谁识	-714
不闻	-715
秋月	-716
留得	-717
▁平生	-718
人情	-719
四时	-720
岂无	-721
相亲	-722
蛾眉	-723
无奈	-724
本无	-725
明年	-726
▁满	-727
清香	-728
漫漫	-729
▁仙	-730
▁柳	-731
身世	-732
两岸	-733
寸心	-734
有无	-735
渺渺	-736
见说	-737
古木	-738
未知	-739
烟水	-740
银河	-741
万壑	-742
林间	-743
试问	-744
遥知	-745
多时	-746
虚空	-747
送君	-748
袅袅	-749
野水	-750
▁出	-751
冉冉	-752
池上	-753
道路	-754
云深	-755
江城	-756
一朝	-757
相忆	-758
胸中	-759
▁何处	-760
荷花	-761
沧洲	-762
何为	-763
十分	-764
归心	-765
随处	-766
令人	-767
▁草	-768
依稀	-769
如有	-770
尚有	-771
江东	-772
▁松	-773
吟诗	-774
意气	-775
▁六	-776
想见	-777
▁太	-778
枝头	-779
歌声	-780
溪流	-781
鹧鸪	-782
不应	-783
孤云	-784
暮雨	-785
清秋	-786
庭前	-787
不断	-788
岁华	-789
忘机	-790
春山	-791
楼上	-792
兄弟	-793
闻道	-794
人去	-795
人来	-796
风生	-797
云外	-798
时有	-799
夫子	-800
寄语	-801
琅玕	-802
万年	-803
不动	-804
▁前	-805
一半	-806
未成	-807
武陵	-808
离别	-809
天际	-810
▁道	-811
东流	-812
年少	-813
窗前	-814
鸡犬	-815
送客	-816
飞去	-817
黄河	-818
艰难	-819
我欲	-820
池塘	-821
▁别	-822
江边	-823
玉树	-824
薜萝	-825
高卧	-826
三尺	-827
只在	-828
未有	-829
杨花	-830
云间	-831
夕照	-832
干戈	-833
晚来	-834
水中	-835
花发	-836
月华	-837
野人	-838
长江	-839
▁江南	-840
经过	-841
玲珑	-842
秋雨	-843
缥缈	-844
谁是	-845
▁湖	-846
不足	-847
老僧	-848
花下	-849
不厌	-850
区区	-851
▁中	-852
相期	-853
笙歌	-854
无尘	-855
清夜	-856
造化	-857
清溪	-858
▁双	-859
▁空	-860
乘兴	-861
只今	-862
谁怜	-863
迟迟	-864
鸟啼	-865
应是	-866
眼中	-867
白石	-868
绿杨	-869
岁岁	-870
清凉	-871
行行	-872
何许	-873
到此	-874
莫问	-875
人意	-876
斯人	-877
未可	-878
▁吴	-879
山深	-880
▁春风	-881
杯酒	-882
松柏	-883
芭蕉	-884
始知	-885
一望	-886
衣裳	-887
文字	-888
新月	-889
阴阴	-890
花前	-891
不负	-892
天边	-893
此去	-894
泉声	-895
鸡鸣	-896
便是	-897
名山	-898
天台	-899
山阴	-900
次第	-901
苍生	-902
梦回	-903
渊明	-904
莫教	-905
半夜	-906
灯前	-907
盈盈	-908
一醉	-909
人知	-910
镜中	-911
不必	-912
入梦	-913
所思	-914
书生	-915
凭栏	-916
日长	-917
相送	-918
▁八	-919
五月	-920
山光	-921
淹留	-922
已成	-923
▁飞	-924
东篱	-925
云飞	-926
有情	-927
水上	-928
钓鱼	-929
一树	-930
何由	-931
最是	-932
薄暮	-933
携手	-934
乡心	-935
相随	-936
雨中	-937
高人	-938
古寺	-939
当日	-940
三日	-941
百花	-942
无地	-943
远近	-944
雪满	-945
客心	-946
人语	-947
十载	-948
明珠	-949
杖藜	-950
离离	-951
▁少	-952
北风	-953
蝴蝶	-954
有客	-955
诗句	-956
笑语	-957
▁楚	-958
何处是	-959
一一	-960
可惜	-961
城郭	-962
无定	-963
行藏	-964
世情	-965
春秋	-966
平安	-967
相过	-968
老子	-969
莺啼	-970
空自	-971
相如	-972
阳春	-973
▁深	-974
客愁	-975
空馀	-976
自古	-977
长生	-978
为问	-979
木叶	-980
谁复	-981
▁七	-982
不与	-983
归梦	-984
欲问	-985
浩荡	-986
疏雨	-987
▁家	-988
天气	-989
看云	-990
西来	-991
不受	-992
生死	-993
翛然	-994
京华	-995
只恐	-996
可能	-997
君看	-998
城南	-999
对酒	-1000
方知	-1001
朝朝	-1002
红叶	-1003
寥寥	-1004
林泉	-1005
封侯	-1006
春事	-1007
日落	-1008
一家	-1009
十五	-1010
自笑	-1011
随意	-1012
宇宙	-1013
尊前	-1014
樽酒	-1015
繁华	-1016
高风	-1017
交情	-1018
人世	-1019
天意	-1020
微雨	-1021
儿孙	-1022
早晚	-1023
长啸	-1024
居士	-1025
只是	-1026
我心	-1027
泠泠	-1028
潺湲	-1029
牛羊	-1030
眼看	-1031
花间	-1032
稚子	-1033
▁偶	-1034
▁溪	-1035
沉沉	-1036
犹是	-1037
关河	-1038
鸟声	-1039
▁数	-1040
万家	-1041
临流	-1042
去不	-1043
行乐	-1044
物外	-1045
连天	-1046
霏霏	-1047
已无	-1048
潇洒	-1049
渔舟	-1050
白鸟	-1051
带雨	-1052
木兰	-1053
相从	-1054
未曾	-1055
楼阁	-1056
碧玉	-1057
不住	-1058
残雪	-1059
沽酒	-1060
空有	-1061
须知	-1062
两鬓	-1063
男儿	-1064
若何	-1065
山月	-1066
峰头	-1067
幽栖	-1068
柳色	-1069
湖水	-1070
珊瑚	-1071
鱼龙	-1072
▁落日	-1073
亦何	-1074
今已	-1075
▁好	-1076
历历	-1077
居然	-1078
桑麻	-1079
丈夫	-1080
古来	-1081
乔木	-1082
南来	-1083
太守	-1084
婆娑	-1085
梦到	-1086
迢递	-1087
隐隐	-1088
五云	-1089
花影	-1090
身在	-1091
阶前	-1092
客路	-1093
得意	-1094
乱山	-1095
木落	-1096
江天	-1097
长松	-1098
▁文	-1099
仙家	-1100
台上	-1101
烟树	-1102
青灯	-1103
▁路	-1104
万物	-1105
云生	-1106
千树	-1107
开门	-1108
▁圣	-1109
一番	-1110
城中	-1111
如梦	-1112
一路	-1113
三百	-1114
云水	-1115
北山	-1116
▁入	-1117
微茫	-1118
风高	-1119
飘飘	-1120
▁几	-1121
▁画	-1122
旌旗	-1123
赖有	-1124
▁初	-1125
君恩	-1126
尊酒	-1127
怀人	-1128
未休	-1129
枝上	-1130
睡起	-1131
子孙	-1132
万顷	-1133
况复	-1134
鹦鹉	-1135
山高	-1136
独倚	-1137
与谁	-1138
前山	-1139
四面	-1140
玉堂	-1141
▁香	-1142
亦无	-1143
寒云	-1144
无计	-1145
春愁	-1146
海门	-1147
萧瑟	-1148
蛟龙	-1149
亦自	-1150
濛濛	-1151
片片	-1152
▁诗	-1153
姓名	-1154
归期	-1155
窗外	-1156
▁十年	-1157
修竹	-1158
坐久	-1159
堂堂	-1160
总是	-1161
慷慨	-1162
翡翠	-1163
凭谁	-1164
尘土	-1165
弟兄	-1166
留客	-1167
薰风	-1168
一双	-1169
人行	-1170
未应	-1171
满眼	-1172
万山	-1173
长歌	-1174
一般	-1175
娟娟	-1176
其如	-1177
无路	-1178
相寻	-1179
飞鸟	-1180
冰霜	-1181
几多	-1182
▁心	-1183
等闲	-1184
风物	-1185
小窗	-1186
老人	-1187
高堂	-1188
如雪	-1189
望中	-1190
月落	-1191
波涛	-1192
湖海	-1193
潇潇	-1194
赢得	-1195
不辞	-1196
死生	-1197
陌上	-1198
三山	-1199
岂是	-1200
无力	-1201
无尽	-1202
▁露	-1203
瑶池	-1204
风清	-1205
天高	-1206
踪迹	-1207
▁结	-1208
▁酒	-1209
白露	-1210
窗下	-1211
竹枝	-1212
▁爱	-1213
俯仰	-1214
淮南	-1215
犬吠	-1216
绿树	-1217
邂逅	-1218
凄凄	-1219
吾庐	-1220
幽居	-1221
日斜	-1222
溪头	-1223
田家	-1224
相识	-1225
真成	-1226
经行	-1227
▁曲	-1228
▁燕	-1229
不道	-1230
难忘	-1231
黄鹂	-1232
高树	-1233
上林	-1234
中天	-1235
柴扉	-1236
渔樵	-1237
湖光	-1238
莓苔	-1239
▁宝	-1240
▁灵	-1241
云烟	-1242
愁绝	-1243
终不	-1244
落落	-1245
一段	-1246
上下	-1247
人烟	-1248
烟云	-1249
骑马	-1250
一何	-1251
万重	-1252
▁故人	-1253
▁岁	-1254
万象	-1255
枕上	-1256
深山	-1257
落尽	-1258
几许	-1259
山花	-1260
新晴	-1261
莫言	-1262
谁道	-1263
青松	-1264
▁林	-1265
一样	-1266
不信	-1267
愁人	-1268
春意	-1269
晚凉	-1270
柳条	-1271
▁绝	-1272
一天	-1273
峥嵘	-1274
无所	-1275
如云	-1276
山人	-1277
异乡	-1278
斯文	-1279
时人	-1280
未全	-1281
溪边	-1282
珠帘	-1283
风味	-1284
坐看	-1285
婵娟	-1286
感慨	-1287
窈窕	-1288
酒家	-1289
九重	-1290
书来	-1291
南风	-1292
山上	-1293
收拾	-1294
更深	-1295
月影	-1296
须臾	-1297
兴亡	-1298
岂知	-1299
他时	-1300
十万	-1301
如可	-1302
山空	-1303
春日	-1304
楼前	-1305
无一事	-1306
东海	-1307
崔嵬	-1308
惊起	-1309
▁才	-1310
不出	-1311
却忆	-1312
可是	-1313
▁早	-1314
▁积	-1315
云开	-1316
未央	-1317
秋草	-1318
自成	-1319
莫怪	-1320
长吟	-1321
▁烟	-1322
不惜	-1323
双鬓	-1324
归舟	-1325
流光	-1326
雨馀	-1327
风急	-1328
桥边	-1329
▁华	-1330
人归	-1331
何物	-1332
前村	-1333
南枝	-1334
含情	-1335
工夫	-1336
未开	-1337
欲知	-1338
萋萋	-1339
上天	-1340
又见	-1341
叶落	-1342
大江	-1343
头白	-1344
采莲	-1345
长年	-1346
▁闻道	-1347
楼头	-1348
霜雪	-1349
千尺	-1350
吾生	-1351
图画	-1352
堂前	-1353
悲歌	-1354
本来	-1355
北斗	-1356
春去	-1357
相与	-1358
荷叶	-1359
春梦	-1360
未了	-1361
点点	-1362
▁河	-1363
何足	-1364
古道	-1365
瑶台	-1366
相知	-1367
莫遣	-1368
近来	-1369
▁忽	-1370
孤山	-1371
归时	-1372
时来	-1373
特地	-1374
茅檐	-1375
云霄	-1376
到家	-1377
声声	-1378
天心	-1379
寒山	-1380
秋气	-1381
眼明	-1382
行客	-1383
酒醒	-1384
丹砂	-1385
怀抱	-1386
此夜	-1387
宿雨	-1388
寒烟	-1389
片云	-1390
光阴	-1391
天香	-1392
沾衣	-1393
绿水	-1394
莫向	-1395
野老	-1396
中人	-1397
孤灯	-1398
无因	-1399
白鹭	-1400
离骚	-1401
沈沈	-1402
泉石	-1403
▁开	-1404
一见	-1405
世路	-1406
出山	-1407
未肯	-1408
渡头	-1409
中秋	-1410
湘水	-1411
不易	-1412
孤村	-1413
新年	-1414
汉家	-1415
自由	-1416
▁青山	-1417
又是	-1418
有意	-1419
交游	-1420
童子	-1421
渔父	-1422
▁秋风	-1423
四壁	-1424
昔年	-1425
过雨	-1426
一灯	-1427
不记	-1428
无由	-1429
流年	-1430
行云	-1431
风动	-1432
世上	-1433
丘壑	-1434
二十	-1435
暗香	-1436
长在	-1437
▁闲	-1438
天公	-1439
山城	-1440
未许	-1441
此君	-1442
登山	-1443
▁身	-1444
▁轻	-1445
不管	-1446
岂不	-1447
应知	-1448
手自	-1449
沧波	-1450
第几	-1451
▁梦	-1452
不关	-1453
双双	-1454
无风	-1455
星辰	-1456
片帆	-1457
老树	-1458
西东	-1459
金陵	-1460
怜君	-1461
绿苔	-1462
翰墨	-1463
蒹葭	-1464
黄云	-1465
▁王	-1466
平地	-1467
泪痕	-1468
生意	-1469
相依	-1470
▁每	-1471
与人	-1472
去来	-1473
向晚	-1474
声名	-1475
著书	-1476
隔岸	-1477
刘郎	-1478
城市	-1479
应无	-1480
白马	-1481
秋山	-1482
诗情	-1483
飘然	-1484
云霞	-1485
满庭	-1486
谈笑	-1487
▁江上	-1488
不寐	-1489
丰年	-1490
乘风	-1491
平沙	-1492
欲尽	-1493
物华	-1494
老大	-1495
▁荒	-1496
中夜	-1497
石桥	-1498
离群	-1499
还有	-1500
难为	-1501
龙蛇	-1502
一春	-1503
不起	-1504
别来	-1505
莫作	-1506
诗思	-1507
上方	-1508
不分	-1509
世界	-1510
山灵	-1511
毕竟	-1512
胭脂	-1513
非关	-1514
人物	-1515
去住	-1516
堂上	-1517
小楼	-1518
空庭	-1519
难得	-1520
小桥	-1521
山青	-1522
满目	-1523
老来	-1524
只应	-1525
得句	-1526
拄杖	-1527
无边	-1528
之子	-1529
春云	-1530
相问	-1531
落照	-1532
逢君	-1533
闭户	-1534
▁短	-1535
一线	-1536
功成	-1537
安知	-1538
指点	-1539
父老	-1540
田园	-1541
销魂	-1542
造物	-1543
锦绣	-1544
吹箫	-1545
徙倚	-1546
晴日	-1547
此是	-1548
殊未	-1549
江声	-1550
江村	-1551
沧溟	-1552
论文	-1553
谷口	-1554
天真	-1555
无意	-1556
维摩	-1557
花时	-1558
苍梧	-1559
高枕	-1560
庐山	-1561
惭愧	-1562
森森	-1563
满林	-1564
那能	-1565
乐事	-1566
花气	-1567
▁疏	-1568
何之	-1569
已是	-1570
思量	-1571
扶桑	-1572
水声	-1573
画船	-1574
莺花	-1575
镜里	-1576
霓裳	-1577
寥落	-1578
树影	-1579
氤氲	-1580
洞天	-1581
猿啼	-1582
罗衣	-1583
▁重	-1584
不教	-1585
南国	-1586
纤纤	-1587
一回	-1588
一枕	-1589
出处	-1590
太古	-1591
子规	-1592
彷佛	-1593
残阳	-1594
苦吟	-1595
远游	-1596
高歌	-1597
天然	-1598
星斗	-1599
一尊	-1600
不改	-1601
中宵	-1602
云雨	-1603
忽见	-1604
相将	-1605
篱落	-1606
露华	-1607
▁问	-1608
人人	-1609
秋云	-1610
自从	-1611
野色	-1612
▁官	-1613
不因	-1614
个中	-1615
却是	-1616
扰扰	-1617
琉璃	-1618
衡门	-1619
鸥鹭	-1620
华发	-1621
叹息	-1622
多事	-1623
得似	-1624
忘言	-1625
有酒	-1626
爽气	-1627
▁明	-1628
倚栏	-1629
团团	-1630
大地	-1631
天一	-1632
红日	-1633
高秋	-1634
▁帝	-1635
▁梅	-1636
乡关	-1637
入夜	-1638
寒梅	-1639
晓风	-1640
未觉	-1641
朱门	-1642
此行	-1643
白蘋	-1644
▁名	-1645
一夕	-1646
从教	-1647
忘却	-1648
星河	-1649
秋深	-1650
光辉	-1651
平原	-1652
无赖	-1653
最高	-1654
老翁	-1655
莫相	-1656
东君	-1657
斜晖	-1658
树色	-1659
水晶	-1660
水清	-1661
湖边	-1662
溪桥	-1663
红妆	-1664
阴晴	-1665
高低	-1666
▁群	-1667
中兴	-1668
何意	-1669
佳句	-1670
宁知	-1671
寒泉	-1672
莫将	-1673
龙门	-1674
司马	-1675
无生	-1676
朱颜	-1677
杜陵	-1678
长沙	-1679
云影	-1680
四十	-1681
月出	-1682
清流	-1683
清阴	-1684
于此	-1685
满城	-1686
空林	-1687
蝉声	-1688
□□□	-1689
留连	-1690
白昼	-1691
等閒	-1692
草树	-1693
▁残	-1694
一任	-1695
却笑	-1696
各自	-1697
来去	-1698
栖迟	-1699
野花	-1700
▁昨夜	-1701
前身	-1702
山路	-1703
彭泽	-1704
思归	-1705
松竹	-1706
烽火	-1707
▁神	-1708
升平	-1709
脉脉	-1710
莺声	-1711
雨初	-1712
不死	-1713
云根	-1714
应笑	-1715
心自	-1716
无际	-1717
琴书	-1718
风日	-1719
鸟语	-1720
上有	-1721
人言	-1722
雪中	-1723
二十年	-1724
▁子	-1725
大夫	-1726
天空	-1727
月光	-1728
松阴	-1729
清泉	-1730
疏影	-1731
长空	-1732
雁声	-1733
▁白云	-1734
▁近	-1735
不入	-1736
崎岖	-1737
床头	-1738
承恩	-1739
雨来	-1740
凭高	-1741
南州	-1742
可人	-1743
醉乡	-1744
馀生	-1745
高台	-1746
八月	-1747
夜寒	-1748
樽前	-1749
知我	-1750
管弦	-1751
坐对	-1752
楼船	-1753
白鹤	-1754
相宜	-1755
花满	-1756
▁学	-1757
幽香	-1758
庭院	-1759
来此	-1760
行役	-1761
人不见	-1762
▁兰	-1763
一溪	-1764
似水	-1765
无此	-1766
汉宫	-1767
纵有	-1768
事业	-1769
无可	-1770
眼底	-1771
秦淮	-1772
隐几	-1773
霄汉	-1774
风声	-1775
▁閒	-1776
九天	-1777
北窗	-1778
叶叶	-1779
暮烟	-1780
炊烟	-1781
萧疏	-1782
▁元	-1783
南浦	-1784
吾家	-1785
因君	-1786
多谢	-1787
诸生	-1788
雪霜	-1789
万树	-1790
不容	-1791
宛转	-1792
时闻	-1793
犹能	-1794
蒲团	-1795
谁言	-1796
风雷	-1797
七十	-1798
人多	-1799
北望	-1800
无用	-1801
猿鹤	-1802
麒麟	-1803
▁乱	-1804
已过	-1805
清梦	-1806
▁明月	-1807
▁苍	-1808
三秋	-1809
关情	-1810
莫愁	-1811
露湿	-1812
鸟道	-1813
▁去年	-1814
三五	-1815
三生	-1816
不平	-1817
亭上	-1818
听雨	-1819
城头	-1820
尘世	-1821
我独	-1822
暝色	-1823
有遗	-1824
船头	-1825
虚名	-1826
远树	-1827
▁凤	-1828
▁相	-1829
万户	-1830
九日	-1831
何限	-1832
几处	-1833
微吟	-1834
耿耿	-1835
蓬蒿	-1836
谁云	-1837
钱塘	-1838
▁锦	-1839
垂垂	-1840
逢春	-1841
长城	-1842
▁望	-1843
人自	-1844
吹笛	-1845
无俗	-1846
无聊	-1847
日已	-1848
玉壶	-1849
轻舟	-1850
▁同	-1851
一字	-1852
下有	-1853
不去	-1854
入云	-1855
匹马	-1856
招隐	-1857
日出	-1858
滔滔	-1859
疏林	-1860
不向	-1861
与世	-1862
山雨	-1863
悬知	-1864
搔首	-1865
流莺	-1866
胡为	-1867
采药	-1868
一梦	-1869
倚杖	-1870
双飞	-1871
声中	-1872
客思	-1873
宫中	-1874
山鸟	-1875
征衣	-1876
心期	-1877
朝阳	-1878
河汉	-1879
浊酒	-1880
浩浩	-1881
渡江	-1882
羲皇	-1883
连云	-1884
闻说	-1885
不著	-1886
凉生	-1887
年光	-1888
忽闻	-1889
晚晴	-1890
沧江	-1891
登台	-1892
还自	-1893
远道	-1894
不许	-1895
丝丝	-1896
复何	-1897
松声	-1898
林深	-1899
深深	-1900
紫翠	-1901
细细	-1902
虽然	-1903
付与	-1904
佳节	-1905
傍人	-1906
后人	-1907
清江	-1908
雨雪	-1909
东风吹	-1910
几家	-1911
因风	-1912
客子	-1913
玉人	-1914
团扇	-1915
山家	-1916
应不	-1917
芰荷	-1918
鬓毛	-1919
▁忆昔	-1920
一卷	-1921
何堪	-1922
客衣	-1923
家风	-1924
无恙	-1925
潺潺	-1926
炉香	-1927
三十六	-1928
后来	-1929
广寒	-1930
月夜	-1931
有声	-1932
独醒	-1933
空谷	-1934
老病	-1935
万木	-1936
不独	-1937
为报	-1938
凄然	-1939
几重	-1940
千门	-1941
只为	-1942
岁暮	-1943
欲去	-1944
江汉	-1945
箫鼓	-1946
红颜	-1947
隔水	-1948
▁种	-1949
云树	-1950
半是	-1951
愁杀	-1952
无馀	-1953
明时	-1954
汀洲	-1955
清绝	-1956
经纶	-1957
花红	-1958
还乡	-1959
青眼	-1960
劳生	-1961
篮舆	-1962
诸公	-1963
▁不见	-1964
西风吹	-1965
▁方	-1966
作客	-1967
取次	-1968
城下	-1969
屈指	-1970
断魂	-1971
春酒	-1972
未尽	-1973
松下	-1974
泪满	-1975
疏钟	-1976
直到	-1977
长日	-1978
▁共	-1979
▁沙	-1980
南飞	-1981
如丝	-1982
数行	-1983
横斜	-1984
永夜	-1985
舟楫	-1986
▁东风	-1987
▁手	-1988
东方	-1989
中年	-1990
传家	-1991
况是	-1992
即是	-1993
有此	-1994
渔翁	-1995
荔枝	-1996
西园	-1997
频年	-1998
亦知	-1999
千岩	-2000
四方	-2001
邻家	-2002
高山	-2003
影落	-2004
流落	-2005
犹记	-2006
独怜	-2007
离情	-2008
自得	-2009
鼓角	-2010
▁薄	-2011
▁银	-2012
中间	-2013
事事	-2014
心如	-2015
未须	-2016
边城	-2017
高士	-2018
黄菊	-2019
▁晴	-2020
不言	-2021
六朝	-2022
春江	-2023
石头	-2024
行吟	-2025
赋诗	-2026
家贫	-2027
晓来	-2028
本是	-2029
杜宇	-2030
维舟	-2031
谪仙	-2032
走马	-2033
遥望	-2034
陈迹	-2035
飞絮	-2036
鸡声	-2037
▁当年	-2038
一别	-2039
化作	-2040
垂老	-2041
故里	-2042
月在	-2043
狂歌	-2044
终古	-2045
衔杯	-2046
金门	-2047
▁西风	-2048
▁门	-2049
同一	-2050
此夕	-2051
舟行	-2052
芳树	-2053
诗酒	-2054
香风	-2055
不眠	-2056
尽是	-2057
忽惊	-2058
春花	-2059
西南	-2060
鸟飞	-2061
丹心	-2062
前朝	-2063
堪笑	-2064
布衣	-2065
淡淡	-2066
茫然	-2067
郊原	-2068
雪花	-2069
东林	-2070
头上	-2071
嵯峨	-2072
涧水	-2073
荒凉	-2074
▁白发	-2075
▁赤	-2076
▁醉	-2077
未易	-2078
烟火	-2079
积雪	-2080
▁坐	-2081
万国	-2082
分外	-2083
有神	-2084
波光	-2085
胜游	-2086
郁郁	-2087
下马	-2088
伤神	-2089
和气	-2090
归人	-2091
忽然	-2092
柳絮	-2093
洞口	-2094
草草	-2095
落木	-2096
钓船	-2097
▁岩	-2098
万人	-2099
努力	-2100
同游	-2101
孤峰	-2102
朝廷	-2103
相忘	-2104
老眼	-2105
苍翠	-2106
茅茨	-2107
不问	-2108
今岁	-2109
向谁	-2110
夜色	-2111
天机	-2112
孤帆	-2113
定知	-2114
忘归	-2115
朔风	-2116
桃叶	-2117
静中	-2118
一峰	-2119
日照	-2120
春回	-2121
陇头	-2122
不可见	-2123
》。	-2124
一榻	-2125
一樽	-2126
与子	-2127
但见	-2128
夜长	-2129
景物	-2130
灯影	-2131
禾黍	-2132
绮罗	-2133
芍药	-2134
莫笑	-2135
青草	-2136
层层	-2137
聊复	-2138
衲僧	-2139
青衫	-2140
骨肉	-2141
高下	-2142
▁风雨	-2143
▁正	-2144
山寺	-2145
掩扉	-2146
新秋	-2147
无为	-2148
日夕	-2149
朦胧	-2150
清霜	-2151
甲子	-2152
驱车	-2153
高阁	-2154
一棹	-2155
八十	-2156
大道	-2157
梦寐	-2158
横塘	-2159
渔歌	-2160
父子	-2161
玉楼	-2162
皎皎	-2163
长亭	-2164
飘泊	-2165
▁连	-2166
如君	-2167
数点	-2168
旧日	-2169
昆崙	-2170
更多	-2171
残梦	-2172
深夜	-2173
游丝	-2174
花雨	-2175
都门	-2176
▁寂寞	-2177
今来	-2178
前溪	-2179
圣主	-2180
幽怀	-2181
我自	-2182
残红	-2183
浮名	-2184
绝顶	-2185
蜀道	-2186
过客	-2187
▁素	-2188
一雨	-2189
丛林	-2190
凭君	-2191
堪怜	-2192
天开	-2193
水自	-2194
沙鸥	-2195
渺茫	-2196
竟日	-2197
行处	-2198
轻寒	-2199
高情	-2200
▁公	-2201
城西	-2202
寒光	-2203
斗酒	-2204
有谁	-2205
未见	-2206
聊自	-2207
菰蒲	-2208
▁朱	-2209
何因	-2210
千岁	-2211
开花	-2212
曾见	-2213
月如	-2214
来看	-2215
神州	-2216
竹间	-2217
蔷薇	-2218
谁将	-2219
还似	-2220
隔江	-2221
▁闻说	-2222
▁树	-2223
使者	-2224
声里	-2225
征人	-2226
恰似	-2227
数峰	-2228
独往	-2229
鬼神	-2230
归未得	-2231
▁归	-2232
万卷	-2233
三两	-2234
不语	-2235
十八	-2236
去路	-2237
女儿	-2238
惟应	-2239
枫叶	-2240
沧桑	-2241
论交	-2242
遗恨	-2243
九州	-2244
光明	-2245
关心	-2246
对此	-2247
弦歌	-2248
禅心	-2249
空中	-2250
▁丹	-2251
一度	-2252
一种	-2253
各有	-2254
悲秋	-2255
溪声	-2256
灯花	-2257
遗迹	-2258
▁马	-2259
不忘	-2260
喜见	-2261
秀色	-2262
红树	-2263
诸天	-2264
金石	-2265
随人	-2266
风送	-2267
驿路	-2268
▁少年	-2269
坐来	-2270
客梦	-2271
寻幽	-2272
招提	-2273
相呼	-2274
稻粱	-2275
自生	-2276
道士	-2277
高处	-2278
▁杨柳	-2279
人已	-2280
何劳	-2281
夜静	-2282
捲帘	-2283
未为	-2284
流泉	-2285
细看	-2286
邯郸	-2287
长夜	-2288
面目	-2289
鸣琴	-2290
▁一片	-2291
安能	-2292
寒雨	-2293
摩挲	-2294
满山	-2295
经旬	-2296
为人	-2297
也知	-2298
亦可	-2299
图书	-2300
沾巾	-2301
说与	-2302
▁静	-2303
一人	-2304
一带	-2305
一念	-2306
举世	-2307
卧听	-2308
商量	-2309
天南	-2310
庭树	-2311
悲风	-2312
新凉	-2313
未识	-2314
未足	-2315
气象	-2316
炉烟	-2317
石门	-2318
碧天	-2319
鱼鸟	-2320
▁只	-2321
三春	-2322
小舟	-2323
此际	-2324
水石	-2325
江月	-2326
画屏	-2327
礼乐	-2328
虚堂	-2329
▁凉	-2330
丞相	-2331
临池	-2332
为尔	-2333
伤春	-2334
使人	-2335
夜阑	-2336
客至	-2337
愁心	-2338
月初	-2339
江云	-2340
河流	-2341
物色	-2342
一自	-2343
与天	-2344
九原	-2345
佳期	-2346
倚楼	-2347
天明	-2348
好是	-2349
宫殿	-2350
寒花	-2351
山翁	-2352
平芜	-2353
是谁	-2354
犹得	-2355
百战	-2356
秋霜	-2357
荒村	-2358
谢公	-2359
随缘	-2360
一寸	-2361
上头	-2362
不离	-2363
云归	-2364
半生	-2365
惊心	-2366
春衣	-2367
朝天	-2368
杖屦	-2369
气清	-2370
江干	-2371
沙头	-2372
清歌	-2373
烟萝	-2374
相伴	-2375
经营	-2376
老成	-2377
衰草	-2378
谁共	-2379
谁解	-2380
非吾	-2381
不远	-2382
云边	-2383
何地	-2384
广陵	-2385
忘忧	-2386
我有	-2387
残春	-2388
百岁	-2389
雪里	-2390
何有	-2391
几番	-2392
好风	-2393
寒色	-2394
岂有	-2395
归思	-2396
时一	-2397
残照	-2398
▁村	-2399
万斛	-2400
云低	-2401
千寻	-2402
地僻	-2403
太白	-2404
好事	-2405
少陵	-2406
愁来	-2407
水光	-2408
碧山	-2409
离愁	-2410
醉里	-2411
隔溪	-2412
▁十载	-2413
▁山中	-2414
一色	-2415
云端	-2416
千仞	-2417
幸有	-2418
新妆	-2419
无涯	-2420
此情	-2421
水滨	-2422
池边	-2423
烂漫	-2424
烟雾	-2425
照人	-2426
▁天上	-2427
分付	-2428
可以	-2429
可知	-2430
天河	-2431
太虚	-2432
如玉	-2433
安排	-2434
客里	-2435
无酒	-2436
月正	-2437
梦觉	-2438
相似	-2439
▁晨	-2440
夫人	-2441
小儿	-2442
时见	-2443
春已	-2444
春阴	-2445
海天	-2446
瀑布	-2447
素心	-2448
问津	-2449
霜风	-2450
音书	-2451
一官	-2452
不放	-2453
夜凉	-2454
如来	-2455
峰前	-2456
平湖	-2457
杳杳	-2458
谁谓	-2459
何处觅	-2460
明月夜	-2461
▁秦	-2462
▁遥	-2463
下水	-2464
不定	-2465
两地	-2466
五十	-2467
十月	-2468
寒日	-2469
日边	-2470
晴空	-2471
清谈	-2472
襄阳	-2473
西楼	-2474
春风吹	-2475
▁旅	-2476
▁暮	-2477
不愁	-2478
何能	-2479
倾城	-2480
变化	-2481
断续	-2482
未到	-2483
正好	-2484
江北	-2485
满天	-2486
知名	-2487
若个	-2488
落月	-2489
三千里	-2490
千林	-2491
和风	-2492
圣贤	-2493
垂钓	-2494
小雨	-2495
时复	-2496
明主	-2497
黄尘	-2498
▁得	-2499
▁采	-2500
不惊	-2501
何心	-2502
佳处	-2503
凌云	-2504
多年	-2505
如烟	-2506
昏昏	-2507
河山	-2508
潮生	-2509
疏篱	-2510
醉中	-2511
一道	-2512
且莫	-2513
事已	-2514
云林	-2515
五陵	-2516
去去	-2517
去后	-2518
岭头	-2519
意自	-2520
此山	-2521
牢落	-2522
玉笛	-2523
落晖	-2524
蟋蟀	-2525
门户	-2526
鸟雀	-2527
▁乌	-2528
影里	-2529
栏干	-2530
梦断	-2531
涕泪	-2532
猿声	-2533
花柳	-2534
门开	-2535
隔年	-2536
雁影	-2537
▁解	-2538
应难	-2539
怀古	-2540
晓日	-2541
水面	-2542
秋天	-2543
荆棘	-2544
问讯	-2545
阴阳	-2546
飞泉	-2547
▁桂	-2548
倦游	-2549
兰亭	-2550
独行	-2551
衰翁	-2552
青苔	-2553
面面	-2554
▁今日	-2555
不生	-2556
东去	-2557
二三	-2558
低头	-2559
帝乡	-2560
曾经	-2561
流传	-2562
照水	-2563
瑶琴	-2564
紫气	-2565
赵州	-2566
雁行	-2567
骚人	-2568
高僧	-2569
一缕	-2570
城外	-2571
寄书	-2572
林中	-2573
楼高	-2574
残花	-2575
湘江	-2576
烟中	-2577
犹存	-2578
紫芝	-2579
青冥	-2580
风涛	-2581
卧龙	-2582
名园	-2583
报国	-2584
无极	-2585
未消	-2586
模糊	-2587
樱桃	-2588
残年	-2589
生来	-2590
留与	-2591
离人	-2592
苍烟	-2593
西望	-2594
谁人	-2595
一室	-2596
举头	-2597
名利	-2598
子云	-2599
山居	-2600
岁时	-2601
巫山	-2602
已觉	-2603
幽花	-2604
无家	-2605
晴云	-2606
烂熳	-2607
看来	-2608
羽翼	-2609
香火	-2610
▁千里	-2611
人皆	-2612
共一	-2613
安在	-2614
愁思	-2615
慇勤	-2616
犹可	-2617
生计	-2618
碧空	-2619
突兀	-2620
累累	-2621
那可	-2622
钓矶	-2623
饮酒	-2624
黄鸟	-2625
争似	-2626
参天	-2627
寒灯	-2628
游鱼	-2629
烟花	-2630
相携	-2631
隔林	-2632
▁微	-2633
▁细	-2634
传闻	-2635
壮士	-2636
寻春	-2637
帘幕	-2638
幽寻	-2639
往往	-2640
情怀	-2641
武夷	-2642
浅深	-2643
深林	-2644
犹带	-2645
画眉	-2646
莫嫌	-2647
云雾	-2648
去国	-2649
宝剑	-2650
明镜	-2651
犹堪	-2652
瑟瑟	-2653
空翠	-2654
终朝	-2655
丁宁	-2656
公卿	-2657
化为	-2658
太史	-2659
幽兴	-2660
此间	-2661
清波	-2662
翠屏	-2663
若问	-2664
西去	-2665
醉后	-2666
银烛	-2667
▁洞	-2668
千丈	-2669
寻芳	-2670
怪石	-2671
有诗	-2672
清净	-2673
溶溶	-2674
直须	-2675
群峰	-2676
花木	-2677
门巷	-2678
闭关	-2679
飞云	-2680
▁天地	-2681
▁先	-2682
▁芳	-2683
一去	-2684
只合	-2685
君去	-2686
宾客	-2687
尚书	-2688
心知	-2689
扶疏	-2690
握手	-2691
月白	-2692
本自	-2693
步步	-2694
燕山	-2695
陶潜	-2696
雪后	-2697
黄鹤	-2698
嫦娥	-2699
岩前	-2700
应怜	-2701
日光	-2702
未敢	-2703
照影	-2704
诸侯	-2705
黄梅	-2706
▁破	-2707
一个	-2708
半空	-2709
投老	-2710
白衣	-2711
相传	-2712
西窗	-2713
麋鹿	-2714
中庭	-2715
分手	-2716
南去	-2717
山行	-2718
新绿	-2719
最爱	-2720
未是	-2721
水落	-2722
江风	-2723
清浅	-2724
空阶	-2725
胜地	-2726
陶令	-2727
风沙	-2728
▁扁舟	-2729
九月	-2730
仙子	-2731
唤起	-2732
圣人	-2733
太清	-2734
幽禽	-2735
思家	-2736
挥毫	-2737
昔人	-2738
松间	-2739
欲识	-2740
海东	-2741
滩声	-2742
百万	-2743
百丈	-2744
西北	-2745
身后	-2746
高峰	-2747
只自	-2748
四邻	-2749
小园	-2750
帘外	-2751
昔日	-2752
知心	-2753
窗纱	-2754
花阴	-2755
行舟	-2756
逆旅	-2757
钓竿	-2758
难成	-2759
霜露	-2760
五马	-2761
今人	-2762
岭南	-2763
应须	-2764
明发	-2765
有道	-2766
柳丝	-2767
柳阴	-2768
秋江	-2769
穿云	-2770
落红	-2771
谁信	-2772
谁见	-2773
一壶	-2774
兴来	-2775
城东	-2776
天末	-2777
天门	-2778
如画	-2779
孤吟	-2780
客中	-2781
峰峦	-2782
帝子	-2783
心情	-2784
折腰	-2785
招魂	-2786
断桥	-2787
浑似	-2788
绝胜	-2789
谁似	-2790
超然	-2791
逢迎	-2792
都是	-2793
飒飒	-2794
馀年	-2795
▁二月	-2796
元自	-2797
如山	-2798
学士	-2799
宦情	-2800
岂能	-2801
当门	-2802
悠哉	-2803
披襟	-2804
更好	-2805
朝暮	-2806
长风	-2807
青嶂	-2808
青林	-2809
▁时	-2810
字字	-2811
尘外	-2812
教人	-2813
桥上	-2814
群芳	-2815
▁人间	-2816
▁昨	-2817
一尺	-2818
个个	-2819
乡思	-2820
乱石	-2821
前事	-2822
前路	-2823
吾亦	-2824
幽兰	-2825
忧国	-2826
无时	-2827
滋味	-2828
烦君	-2829
碧落	-2830
笑我	-2831
花如	-2832
起来	-2833
道是	-2834
遥想	-2835
▁冷	-2836
半日	-2837
小山	-2838
归田	-2839
春尽	-2840
来寻	-2841
柴桑	-2842
永日	-2843
玉箫	-2844
百世	-2845
移家	-2846
笑杀	-2847
若使	-2848
醉眠	-2849
金钱	-2850
青莲	-2851
飞上	-2852
▁国	-2853
▁离	-2854
▁越	-2855
不穷	-2856
但得	-2857
元是	-2858
居人	-2859
未乾	-2860
浑无	-2861
清虚	-2862
荒草	-2863
行李	-2864
马嘶	-2865
▁昔年	-2866
一行	-2867
乌啼	-2868
云门	-2869
好在	-2870
宋玉	-2871
平野	-2872
归云	-2873
枕簟	-2874
淋漓	-2875
瀛洲	-2876
画楼	-2877
翠袖	-2878
节物	-2879
飞雪	-2880
▁苦	-2881
东坡	-2882
倚阑	-2883
新声	-2884
无劳	-2885
有子	-2886
板桥	-2887
浮沉	-2888
甘泉	-2889
病骨	-2890
秋思	-2891
穷途	-2892
萧索	-2893
野鹤	-2894
魂梦	-2895
▁书	-2896
不下	-2897
不怕	-2898
别时	-2899
到门	-2900
千顷	-2901
斗牛	-2902
暑气	-2903
最怜	-2904
棹歌	-2905
玉女	-2906
白水	-2907
端居	-2908
紫霞	-2909
红粉	-2910
蛱蝶	-2911
飞腾	-2912
不知何处	-2913
一句	-2914
人无	-2915
原上	-2916
好山	-2917
才名	-2918
涓涓	-2919
清兴	-2920
白沙	-2921
羁旅	-2922
薜荔	-2923
谁同	-2924
野寺	-2925
雨晴	-2926
▁人生	-2927
▁十里	-2928
一方	-2929
万丈	-2930
不碍	-2931
不羡	-2932
人看	-2933
元来	-2934
塞上	-2935
未解	-2936
江楼	-2937
深院	-2938
百草	-2939
荒城	-2940
要知	-2941
露滴	-2942
无消息	-2943
▁铁	-2944
京国	-2945
呼童	-2946
垂柳	-2947
形骸	-2948
所以	-2949
日影	-2950
江梅	-2951
花底	-2952
虽有	-2953
试看	-2954
遥怜	-2955
非是	-2956
▁日日	-2957
▁昨日	-2958
▁桃花	-2959
▁老去	-2960
在何处	-2961
知何处	-2962
一抹	-2963
不通	-2964
人稀	-2965
关门	-2966
匡庐	-2967
在山	-2968
清晓	-2969
紫微	-2970
红紫	-2971
芙蕖	-2972
远水	-2973
鲈鱼	-2974
▁先生	-2975
不减	-2976
亦是	-2977
几何	-2978
宿鸟	-2979
披衣	-2980
杯中	-2981
树下	-2982
石壁	-2983
钟磬	-2984
阳和	-2985
鼓吹	-2986
今夜月	-2987
一月	-2988
不嫌	-2989
太行	-2990
帆影	-2991
昭阳	-2992
江乡	-2993
绿波	-2994
鹿门	-2995
▁危	-2996
不回	-2997
不论	-2998
入山	-2999
帘栊	-3000
幕府	-3001
惜别	-3002
暮年	-3003
波澜	-3004
耆旧	-3005
花鸟	-3006
三十年	-3007
随流水	-3008
偃蹇	-3009
可堪	-3010
尘中	-3011
弹指	-3012
得一	-3013
无别	-3014
汗漫	-3015
泽国	-3016
生平	-3017
绵绵	-3018
芬芳	-3019
身是	-3020
飞过	-3021
鸟鸣	-3022
亦不	-3023
从前	-3024
吾欲	-3025
回看	-3026
如花	-3027
孤臣	-3028
尘寰	-3029
岩下	-3030
日色	-3031
旧事	-3032
清吟	-3033
笑指	-3034
蓟门	-3035
虽无	-3036
阳台	-3037
▁细雨	-3038
上客	-3039
不染	-3040
勋业	-3041
合欢	-3042
向东	-3043
客怀	-3044
日高	-3045
枫林	-3046
桂树	-3047
海气	-3048
物情	-3049
犹似	-3050
盘桓	-3051
秋意	-3052
美酒	-3053
翠华	-3054
跻攀	-3055
冰壶	-3056
壮心	-3057
急雨	-3058
断云	-3059
梦醒	-3060
此花	-3061
清影	-3062
溪云	-3063
潦倒	-3064
烽烟	-3065
石床	-3066
碧海	-3067
禅房	-3068
群仙	-3069
著意	-3070
西江	-3071
轻风	-3072
雁飞	-3073
▁雨过	-3074
▁游	-3075
不学	-3076
人衣	-3077
劝君	-3078
宫里	-3079
未老	-3080
柳枝	-3081
残灯	-3082
池水	-3083
琼瑶	-3084
翠竹	-3085
脩竹	-3086
轩窗	-3087
长门	-3088
飞鸿	-3089
高吟	-3090
高城	-3091
▁我爱	-3092
▁真	-3093
一言	-3094
一轮	-3095
不计	-3096
他人	-3097
元无	-3098
凌波	-3099
前贤	-3100
夕晖	-3101
客情	-3102
才子	-3103
携酒	-3104
料得	-3105
暮春	-3106
树阴	-3107
流萤	-3108
深藏	-3109
知否	-3110
道心	-3111
閒情	-3112
风回	-3113
驱驰	-3114
东望	-3115
久已	-3116
乞与	-3117
了无	-3118
偏宜	-3119
剡溪	-3120
名花	-3121
来游	-3122
松楸	-3123
树头	-3124
楚江	-3125
浩歌	-3126
竹叶	-3127
菩提	-3128
诗篇	-3129
野草	-3130
风轻	-3131
三分	-3132
几树	-3133
卷帘	-3134
后生	-3135
宴坐	-3136
帝城	-3137
悬崖	-3138
方寸	-3139
有新	-3140
清时	-3141
犹胜	-3142
自相	-3143
还应	-3144
酒旗	-3145
一杯酒	-3146
▁腊	-3147
不上	-3148
乘槎	-3149
乡国	-3150
从兹	-3151
作赋	-3152
夫君	-3153
孤鹤	-3154
晴天	-3155
楚天	-3156
水月	-3157
浮萍	-3158
立马	-3159
紫烟	-3160
轻烟	-3161
遥遥	-3162
那复	-3163
▁相逢	-3164
不胜情	-3165
▁阴	-3166
万仞	-3167
三峡	-3168
乌鹊	-3169
五年	-3170
倒影	-3171
出塞	-3172
千家	-3173
君来	-3174
四月	-3175
山翠	-3176
川原	-3177
战场	-3178
早春	-3179
画中	-3180
病身	-3181
秋空	-3182
空濛	-3183
苜蓿	-3184
茂陵	-3185
菡萏	-3186
觉来	-3187
贫贱	-3188
身外	-3189
避世	-3190
银汉	-3191
阳关	-3192
青楼	-3193
骢马	-3194
以为	-3195
优游	-3196
单于	-3197
妻子	-3198
帝王	-3199
应为	-3200
情深	-3201
晚节	-3202
桑柘	-3203
沙场	-3204
消磨	-3205
清辉	-3206
玉关	-3207
目断	-3208
老农	-3209
袈裟	-3210
返照	-3211
风定	-3212
▁漫	-3213
一帆	-3214
万籁	-3215
不留	-3216
千嶂	-3217
君心	-3218
岂为	-3219
岭上	-3220
我辈	-3221
未免	-3222
欲迷	-3223
波浪	-3224
浑如	-3225
海潮	-3226
生前	-3227
留滞	-3228
竟何	-3229
竹影	-3230
经秋	-3231
花明	-3232
论心	-3233
无人识	-3234
▁临	-3235
▁虎	-3236
万岁	-3237
万方	-3238
不休	-3239
云起	-3240
凭阑	-3241
好音	-3242
姑苏	-3243
峰顶	-3244
日初	-3245
未还	-3246
清寒	-3247
短发	-3248
还来	-3249
霜叶	-3250
龙吟	-3251
▁萧萧	-3252
今何在	-3253
亦非	-3254
亭下	-3255
人天	-3256
似雪	-3257
北来	-3258
寒江	-3259
忘情	-3260
朝夕	-3261
树杪	-3262
树树	-3263
疏疏	-3264
穷愁	-3265
虫声	-3266
辜负	-3267
▁众	-3268
▁宫	-3269
▁暂	-3270
一丘	-3271
一帘	-3272
一阵	-3273
冥鸿	-3274
家人	-3275
巍巍	-3276
曙色	-3277
欢娱	-3278
歌吹	-3279
江空	-3280
江西	-3281
炎凉	-3282
照见	-3283
莫辞	-3284
黄庭	-3285
▁过	-3286
三四	-3287
三朝	-3288
与我	-3289
东来	-3290
人静	-3291
呜咽	-3292
多难	-3293
寒水	-3294
小亭	-3295
小艇	-3296
情亲	-3297
支离	-3298
春城	-3299
望断	-3300
欹枕	-3301
渐觉	-3302
竹里	-3303
芳心	-3304
重门	-3305
钟山	-3306
随时	-3307
▁鹤	-3308
世无	-3309
二毛	-3310
奔走	-3311
寒风	-3312
数枝	-3313
榴花	-3314
水竹	-3315
清尊	-3316
碧草	-3317
羽毛	-3318
落梅	-3319
行到	-3320
逶迤	-3321
金谷	-3322
钟鼓	-3323
锦囊	-3324
长途	-3325
难寻	-3326
行路难	-3327
吴山	-3328
始信	-3329
孺子	-3330
归客	-3331
想像	-3332
愁多	-3333
曾闻	-3334
枝枝	-3335
浪花	-3336
清露	-3337
渡口	-3338
群山	-3339
若无	-3340
莫厌	-3341
藕花	-3342
西陵	-3343
迎风	-3344
远人	-3345
青鸟	-3346
驻马	-3347
▁常	-3348
▁淮	-3349
▁玄	-3350
不比	-3351
九年	-3352
九霄	-3353
儒冠	-3354
国士	-3355
寻诗	-3356
山泉	-3357
弟子	-3358
归雁	-3359
恨无	-3360
是处	-3361
濯缨	-3362
犹忆	-3363
真如	-3364
祖师	-3365
细草	-3366
自来	-3367
苔痕	-3368
萧森	-3369
▁三月	-3370
▁休	-3371
一庭	-3372
不流	-3373
南海	-3374
君臣	-3375
尔何	-3376
嶙峋	-3377
平分	-3378
忽忆	-3379
日未	-3380
晴光	-3381
更长	-3382
楚客	-3383
玉露	-3384
看君	-3385
笑谈	-3386
纨扇	-3387
终身	-3388
自可	-3389
藤萝	-3390
逡巡	-3391
风叶	-3392
▁湖上	-3393
▁楼	-3394
▁诸	-3395
不愧	-3396
两度	-3397
人迹	-3398
多在	-3399
天光	-3400
左右	-3401
淡烟	-3402
灯下	-3403
碧波	-3404
穿林	-3405
花自	-3406
踟蹰	-3407
高斋	-3408
鸥鸟	-3409
▁夏	-3410
▁虚	-3411
一代	-3412
不飞	-3413
六十	-3414
如雨	-3415
巫峡	-3416
开元	-3417
无能	-3418
春心	-3419
梁园	-3420
水仙	-3421
流霞	-3422
海云	-3423
潸然	-3424
生事	-3425
胡床	-3426
芒鞋	-3427
花草	-3428
茶烟	-3429
赤城	-3430
长是	-3431
青丝	-3432
须弥	-3433
▁佛	-3434
▁庭	-3435
▁断	-3436
幽鸟	-3437
徒劳	-3438
河水	-3439
清宵	-3440
渔家	-3441
独上	-3442
瑶草	-3443
画里	-3444
短长	-3445
空复	-3446
苍龙	-3447
若有	-3448
茱萸	-3449
酒熟	-3450
青霄	-3451
一饭	-3452
会稽	-3453
僧房	-3454
准拟	-3455
北海	-3456
后夜	-3457
向西	-3458
含笑	-3459
啼莺	-3460
四山	-3461
因缘	-3462
客到	-3463
幽情	-3464
幽谷	-3465
忧时	-3466
惨淡	-3467
扬子	-3468
无他	-3469
松花	-3470
檐前	-3471
水满	-3472
海内	-3473
片月	-3474
碧树	-3475
空江	-3476
窗明	-3477
菖蒲	-3478
蓬瀛	-3479
路转	-3480
辛勤	-3481
逸兴	-3482
▁何	-3483
▁往	-3484
▁横	-3485
典刑	-3486
吴门	-3487
家书	-3488
岁年	-3489
戎马	-3490
旧隐	-3491
更清	-3492
池馆	-3493
白莲	-3494
碧桃	-3495
秉烛	-3496
谢家	-3497
赤松	-3498
远公	-3499
非所	-3500
▁梅花	-3501
▁冬	-3502
佳气	-3503
倾盖	-3504
千重	-3505
太息	-3506
姑射	-3507
寒鸦	-3508
带月	-3509
幽独	-3510
更何	-3511
沉吟	-3512
清芬	-3513
灵山	-3514
老矣	-3515
苍然	-3516
茅舍	-3517
都无	-3518
▁春来	-3519
▁愁	-3520
▁放	-3521
下山	-3522
不有	-3523
南楼	-3524
夹岸	-3525
寒衣	-3526
已矣	-3527
心无	-3528
悲欢	-3529
掩关	-3530
早知	-3531
此别	-3532
爱此	-3533
牵牛	-3534
相迎	-3535
真可	-3536
竹外	-3537
策杖	-3538
若教	-3539
鬓丝	-3540
鸱夷	-3541
何处去	-3542
▁直	-3543
▁阿	-3544
中书	-3545
亭前	-3546
何太	-3547
当户	-3548
待得	-3549
暮天	-3550
朱弦	-3551
泪湿	-3552
浩然	-3553
漂泊	-3554
虽云	-3555
记取	-3556
还是	-3557
途穷	-3558
都在	-3559
风帆	-3560
高枝	-3561
四十年	-3562
□□□□□	-3563
云散	-3564
卧病	-3565
又向	-3566
寒生	-3567
御沟	-3568
斜月	-3569
曾无	-3570
环佩	-3571
目前	-3572
终难	-3573
自不	-3574
蜂蝶	-3575
非无	-3576
马头	-3577
▁海上	-3578
无人到	-3579
三昧	-3580
光景	-3581
冠盖	-3582
君行	-3583
如在	-3584
季子	-3585
幽径	-3586
抱琴	-3587
无那	-3588
时事	-3589
春到	-3590
欲寄	-3591
水西	-3592
洞里	-3593
相催	-3594
看取	-3595
秋阴	-3596
竹树	-3597
篱边	-3598
西施	-3599
金波	-3600
金马	-3601
颠倒	-3602
风俗	-3603
一味	-3604
中酒	-3605
从军	-3606
前辈	-3607
小立	-3608
开时	-3609
归鸟	-3610
新来	-3611
日上	-3612
毵毵	-3613
海外	-3614
甘棠	-3615
疏帘	-3616
相关	-3617
閒云	-3618
风花	-3619
▁寂寂	-3620
▁长安	-3621
▁冰	-3622
为爱	-3623
会得	-3624
兰桡	-3625
剩有	-3626
始觉	-3627
寒暑	-3628
归兴	-3629
成阴	-3630
欲上	-3631
欲归	-3632
清音	-3633
独向	-3634
玉山	-3635
空留	-3636
笔端	-3637
聪明	-3638
词客	-3639
闲人	-3640
雁过	-3641
风骚	-3642
▁绕	-3643
三载	-3644
前日	-3645
坐听	-3646
大家	-3647
天花	-3648
岚光	-3649
徒自	-3650
拂衣	-3651
掩门	-3652
晓色	-3653
村村	-3654
树老	-3655
能令	-3656
衡阳	-3657
远岫	-3658
阿谁	-3659
马首	-3660
▁乍	-3661
▁密	-3662
不随	-3663
但觉	-3664
凋零	-3665
唤作	-3666
四围	-3667
尘事	-3668
惘然	-3669
曾是	-3670
秋容	-3671
藜杖	-3672
见月	-3673
醉来	-3674
閒人	-3675
霖雨	-3676
▁午	-3677
▁送	-3678
不爱	-3679
不畏	-3680
兵戈	-3681
凉月	-3682
夹道	-3683
年丰	-3684
归计	-3685
待月	-3686
御史	-3687
心在	-3688
暇日	-3689
杳冥	-3690
海月	-3691
潮声	-3692
王气	-3693
笛声	-3694
肃肃	-3695
花外	-3696
苦辛	-3697
莫惜	-3698
顷刻	-3699
高眠	-3700
▁一夜	-3701
▁不是	-3702
知多少	-3703
▁来	-3704
▁浮	-3705
》,	-3706
一两	-3707
劫灰	-3708
华山	-3709
四望	-3710
地下	-3711
天长	-3712
客星	-3713
寒月	-3714
寒窗	-3715
屋角	-3716
岐路	-3717
得见	-3718
惊人	-3719
未尝	-3720
柴荆	-3721
潮来	-3722
真人	-3723
禅关	-3724
篷窗	-3725
词赋	-3726
雁来	-3727
麻姑	-3728
默默	-3729
▁三年	-3730
秋风吹	-3731
▁故	-3732
一川	-3733
一瓢	-3734
不将	-3735
丹枫	-3736
何况	-3737
南望	-3738
台下	-3739
城上	-3740
天山	-3741
安用	-3742
寒声	-3743
对月	-3744
岭外	-3745
斑斑	-3746
新愁	-3747
明明	-3748
欣然	-3749
玉京	-3750
离家	-3751
红云	-3752
红楼	-3753
羡君	-3754
能无	-3755
风色	-3756
▁漠漠	-3757
又一年	-3758
▁寺	-3759
一条	-3760
一纸	-3761
乱云	-3762
傍水	-3763
劳劳	-3764
同是	-3765
夕曛	-3766
多是	-3767
山鬼	-3768
归程	-3769
思乡	-3770
昔时	-3771
桥西	-3772
武昌	-3773
终年	-3774
花光	-3775
若非	-3776
衮衮	-3777
言归	-3778
门下	-3779
饥寒	-3780
高天	-3781
人不识	-3782
▁皇	-3783
不多	-3784
不耐	-3785
久客	-3786
众生	-3787
吴江	-3788
呼儿	-3789
城边	-3790
天道	-3791
太湖	-3792
寒流	-3793
尚未	-3794
已久	-3795
新雨	-3796
更须	-3797
未忍	-3798
欲飞	-3799
片石	-3800
留取	-3801
穷通	-3802
经时	-3803
绿云	-3804
胜事	-3805
貂裘	-3806
青溪	-3807
野人家	-3808
鹧鸪啼	-3809
▁下	-3810
▁回	-3811
▁散	-3812
▁炎	-3813
一江	-3814
上人	-3815
两行	-3816
五岳	-3817
先知	-3818
朝市	-3819
未已	-3820
玉阶	-3821
王母	-3822
畴昔	-3823
相怜	-3824
秦人	-3825
竹径	-3826
荣枯	-3827
▁木	-3828
一丝	-3829
京洛	-3830
休问	-3831
依约	-3832
几个	-3833
古树	-3834
垂纶	-3835
寒香	-3836
已知	-3837
数家	-3838
无主	-3839
泠然	-3840
石径	-3841
碧水	-3842
社稷	-3843
紫宸	-3844
羊肠	-3845
蔓草	-3846
衰病	-3847
赏心	-3848
过眼	-3849
韶华	-3850
馨香	-3851
龙虎	-3852
▁绣	-3853
▁至	-3854
且喜	-3855
到底	-3856
十三	-3857
吹落	-3858
天欲	-3859
奇峰	-3860
屏风	-3861
应念	-3862
新句	-3863
无日	-3864
日暖	-3865
毫端	-3866
深宫	-3867
满院	-3868
翻成	-3869
衰年	-3870
西子	-3871
钓台	-3872
长条	-3873
闲云	-3874
鲤鱼	-3875
▁白日	-3876
月明中	-3877
▁当	-3878
▁郎	-3879
人传	-3880
公事	-3881
功业	-3882
只愁	-3883
君之	-3884
圣朝	-3885
天与	-3886
安可	-3887
宿草	-3888
旧业	-3889
昨宵	-3890
残书	-3891
清樽	-3892
羊裘	-3893
自爱	-3894
荷锄	-3895
诗卷	-3896
还将	-3897
迟暮	-3898
闺中	-3899
隔帘	-3900
雨湿	-3901
髣髴	-3902
▁世事	-3903
风雨夜	-3904
一为	-3905
一角	-3906
东家	-3907
仙翁	-3908
倚门	-3909
入望	-3910
双眼	-3911
壮志	-3912
掩映	-3913
日华	-3914
月冷	-3915
有约	-3916
有路	-3917
渺然	-3918
犹疑	-3919
秋花	-3920
纵使	-3921
聚散	-3922
花人	-3923
萧散	-3924
踏青	-3925
閒居	-3926
▁年年	-3927
一旦	-3928
一派	-3929
万叠	-3930
九曲	-3931
五字	-3932
分得	-3933
加餐	-3934
吾师	-3935
四五	-3936
壶中	-3937
天低	-3938
山禽	-3939
方外	-3940
更谁	-3941
直下	-3942
相别	-3943
论诗	-3944
身轻	-3945
阊阖	-3946
除却	-3947
韶光	-3948
风度	-3949
仙去	-3950
兀坐	-3951
千官	-3952
南征	-3953
卧看	-3954
只道	-3955
大海	-3956
孤烟	-3957
惊秋	-3958
愿言	-3959
春树	-3960
杀人	-3961
浊醪	-3962
涧底	-3963
深树	-3964
自惭	-3965
荻花	-3966
袖手	-3967
觅句	-3968
还同	-3969
风浪	-3970
黄鹄	-3971
一心	-3972
万峰	-3973
人争	-3974
出水	-3975
双泪	-3976
可无	-3977
壁间	-3978
家在	-3979
岧峣	-3980
已有	-3981
幽梦	-3982
暮色	-3983
桑田	-3984
浔阳	-3985
渔阳	-3986
渡河	-3987
玉佩	-3988
离思	-3989
缠绵	-3990
蜻蜓	-3991
裴回	-3992
认得	-3993
错认	-3994
霜天	-3995
露下	-3996
题名	-3997
飘蓬	-3998
飞飞	-3999
▁百年	-4000
▁落	-4001
▁雁	-4002
一气	-4003
一洗	-4004
万金	-4005
不收	-4006
中郎	-4007
出入	-4008
分携	-4009
南朝	-4010
安危	-4011
宫阙	-4012
尚可	-4013
李白	-4014
此事	-4015
清游	-4016
烟光	-4017
玉颜	-4018
百感	-4019
秋高	-4020
翠羽	-4021
虎豹	-4022
行歌	-4023
谈经	-4024
近日	-4025
醉眼	-4026
门掩	-4027
高寒	-4028
龙山	-4029
千里外	-4030
白云深	-4031
一幅	-4032
不共	-4033
凄清	-4034
南天	-4035
同时	-4036
君今	-4037
塞北	-4038
娉婷	-4039
岂易	-4040
已自	-4041
接天	-4042
枕边	-4043
欲向	-4044
残雨	-4045
江潮	-4046
痛饮	-4047
积雨	-4048
空明	-4049
艳阳	-4050
芝兰	-4051
行看	-4052
酴醾	-4053
閒身	-4054
霁色	-4055
香车	-4056
鼓声	-4057
▁古寺	-4058
白云飞	-4059
▁妙	-4060
▁折	-4061
万马	-4062
不还	-4063
人影	-4064
出林	-4065
十丈	-4066
卜居	-4067
壶觞	-4068
开遍	-4069
得知	-4070
昼夜	-4071
游仙	-4072
相映	-4073
窗虚	-4074
簿书	-4075
紫云	-4076
肩舆	-4077
自家	-4078
辋川	-4079
送春	-4080
问字	-4081
飞入	-4082
鸾鹤	-4083
鼻孔	-4084
▁嘉	-4085
▁舟	-4086
▁蜀	-4087
▁避	-4088
不极	-4089
从头	-4090
元气	-4091
化工	-4092
天远	-4093
寒夜	-4094
幽意	-4095
开窗	-4096
更问	-4097
沾襟	-4098
渔人	-4099
狂风	-4100
独对	-4101
经春	-4102
莲叶	-4103
蒿莱	-4104
蓑衣	-4105
西州	-4106
豫章	-4107
越王	-4108
踌躇	-4109
蹇驴	-4110
连山	-4111
钓舟	-4112
间关	-4113
▁四海	-4114
若为情	-4115
▁尘	-4116
▁步	-4117
▁胡	-4118
一语	-4119
三湘	-4120
不遇	-4121
东皇	-4122
买山	-4123
吏隐	-4124
吹笙	-4125
天教	-4126
学道	-4127
将归	-4128
开口	-4129
故应	-4130
明灭	-4131
比邻	-4132
江左	-4133
泪洒	-4134
澄江	-4135
眼界	-4136
说法	-4137
诸峰	-4138
转觉	-4139
野客	-4140
金盘	-4141
人间世	-4142
▁作	-4143
三冬	-4144
云峰	-4145
冷落	-4146
华表	-4147
因之	-4148
墙东	-4149
墙头	-4150
对客	-4151
微凉	-4152
思亲	-4153
想得	-4154
散作	-4155
无如	-4156
日正	-4157
晚霞	-4158
曲江	-4159
朝云	-4160
涛声	-4161
白眼	-4162
追随	-4163
长者	-4164
雨气	-4165
一朵	-4166
为家	-4167
仙源	-4168
伫立	-4169
儿曹	-4170
即今	-4171
周旋	-4172
岁晏	-4173
峰高	-4174
已作	-4175
常在	-4176
归休	-4177
日下	-4178
是我	-4179
楼中	-4180
洞门	-4181
煌煌	-4182
犹作	-4183
相逐	-4184
真堪	-4185
芳洲	-4186
蟠桃	-4187
遗爱	-4188
野田	-4189
随分	-4190
馀香	-4191
高节	-4192
黯然	-4193
▁汝	-4194
▁羽	-4195
一岁	-4196
不饮	-4197
东邻	-4198
买得	-4199
人閒	-4200
似有	-4201
兴废	-4202
再来	-4203
况有	-4204
及时	-4205
向日	-4206
城里	-4207
如斯	-4208
岑寂	-4209
岩壑	-4210
彩云	-4211
忆旧	-4212
恩深	-4213
是真	-4214
曲径	-4215
栖栖	-4216
游戏	-4217
灼灼	-4218
白浪	-4219
石室	-4220
端的	-4221
第二	-4222
红豆	-4223
肝胆	-4224
花里	-4225
须眉	-4226
风力	-4227
骑驴	-4228
倚阑干	-4229
▁穷	-4230
中心	-4231
为邻	-4232
亦难	-4233
卜筑	-4234
同归	-4235
头颅	-4236
寒林	-4237
山外	-4238
山寒	-4239
市朝	-4240
怪底	-4241
新水	-4242
无成	-4243
燕市	-4244
直上	-4245
终是	-4246
老更	-4247
荆州	-4248
行色	-4249
诗兴	-4250
过江	-4251
遥看	-4252
鸡豚	-4253
黄沙	-4254
乡人	-4255
吊古	-4256
岩花	-4257
廿年	-4258
异时	-4259
春在	-4260
晓寒	-4261
有怀	-4262
枯木	-4263
欲寻	-4264
浣花	-4265
物理	-4266
读罢	-4267
重见	-4268
青门	-4269
鼓鼙	-4270
何处不	-4271
▁倚	-4272
▁湘	-4273
五柳	-4274
从君	-4275
侬家	-4276
元不	-4277
入门	-4278
全家	-4279
全身	-4280
初心	-4281
半山	-4282
参军	-4283
名字	-4284
姮娥	-4285
家乡	-4286
掌中	-4287
无功	-4288
春游	-4289
楚水	-4290
清昼	-4291
百忧	-4292
窗间	-4293
竹篱	-4294
胸次	-4295
自天	-4296
莫把	-4297
谁遣	-4298
连朝	-4299
镇日	-4300
青毡	-4301
风微	-4302
▁一别	-4303
无人见	-4304
▁岸	-4305
一世	-4306
三峰	-4307
不遣	-4308
临江	-4309
信有	-4310
兀兀	-4311
利名	-4312
刺史	-4313
夜气	-4314
夭桃	-4315
宦游	-4316
庭闱	-4317
星星	-4318
更向	-4319
梦绕	-4320
欲将	-4321
流云	-4322
父母	-4323
瑶华	-4324
碧纱	-4325
终南	-4326
绝壁	-4327
醉卧	-4328
门关	-4329
隔墙	-4330
霜华	-4331
风细	-4332
鬓发	-4333
▁亭	-4334
一事	-4335
云梦	-4336
冲寒	-4337
初醒	-4338
危楼	-4339
屐齿	-4340
已深	-4341
得失	-4342
心已	-4343
慈母	-4344
故旧	-4345
晚烟	-4346
曹溪	-4347
有底	-4348
照眼	-4349
珠玑	-4350
看尽	-4351
瞿昙	-4352
秣陵	-4353
筋力	-4354
绝尘	-4355
花事	-4356
萧寺	-4357
萱草	-4358
蘼芜	-4359
衰颜	-4360
辘轳	-4361
远客	-4362
道傍	-4363
长天	-4364
阁上	-4365
青鸾	-4366
鱼虾	-4367
▁流水	-4368
天风吹	-4369
▁于	-4370
一饱	-4371
丝纶	-4372
云来	-4373
六年	-4374
南阳	-4375
堤上	-4376
孤棹	-4377
寄言	-4378
平明	-4379
弹琴	-4380
归棹	-4381
归途	-4382
春昼	-4383
栖鸦	-4384
水深	-4385
消得	-4386
渔火	-4387
点缀	-4388
生香	-4389
石榴	-4390
空门	-4391
自如	-4392
莫讶	-4393
重逢	-4394
长河	-4395
霜月	-4396
风雅	-4397
明月照	-4398
从他	-4399
凤池	-4400
凤皇	-4401
初开	-4402
商山	-4403
奇绝	-4404
如飞	-4405
归欤	-4406
忆君	-4407
振衣	-4408
晚更	-4409
曲曲	-4410
未收	-4411
林壑	-4412
江门	-4413
潮平	-4414
燕语	-4415
荷香	-4416
路入	-4417
重到	-4418
陶然	-4419
顾影	-4420
▁日落	-4421
▁懒	-4422
一场	-4423
不愿	-4424
似我	-4425
便欲	-4426
却向	-4427
回廊	-4428
在兹	-4429
层楼	-4430
形容	-4431
攀折	-4432
春晖	-4433
柴关	-4434
知无	-4435
离披	-4436
窗户	-4437
老龙	-4438
艰危	-4439
蓑笠	-4440
送迎	-4441
邻翁	-4442
霹雳	-4443
非我	-4444
顶上	-4445
顾我	-4446
人间事	-4447
归何处	-4448
与云	-4449
会有	-4450
依山	-4451
凛凛	-4452
到头	-4453
古意	-4454
咸阳	-4455
回风	-4456
大小	-4457
天人	-4458
孤亭	-4459
家园	-4460
家声	-4461
日欲	-4462
春又	-4463
望乡	-4464
欢喜	-4465
河阳	-4466
烟尘	-4467
独步	-4468
石泉	-4469
秋日	-4470
笔砚	-4471
自觉	-4472
苍崖	-4473
虚舟	-4474
街头	-4475
逝水	-4476
遥闻	-4477
金丹	-4478
金缕	-4479
长杨	-4480
隐沦	-4481
高柳	-4482
▁雨后	-4483
不朽	-4484
书卷	-4485
何苦	-4486
半醉	-4487
天籁	-4488
如海	-4489
寒更	-4490
承明	-4491
挑灯	-4492
松菊	-4493
松门	-4494
林塘	-4495
玉皇	-4496
王子	-4497
相访	-4498
祇应	-4499
紫薇	-4500
能知	-4501
贝叶	-4502
还如	-4503
连宵	-4504
静夜	-4505
▁一径	-4506
▁春色	-4507
▁芙蓉	-4508
不会	-4509
农家	-4510
古城	-4511
向夕	-4512
园中	-4513
圣明	-4514
塔影	-4515
孤影	-4516
幽事	-4517
得无	-4518
心地	-4519
意何	-4520
春华	-4521
杳霭	-4522
淮水	-4523
燕雀	-4524
绿叶	-4525
绿野	-4526
背人	-4527
舞衣	-4528
草莱	-4529
落霞	-4530
鬓已	-4531
▁五月	-4532
▁美人	-4533
何处寻	-4534
万点	-4535
三世	-4536
不数	-4537
丹灶	-4538
俎豆	-4539
出没	-4540
吴越	-4541
墙阴	-4542
女郎	-4543
孤月	-4544
安居	-4545
官舍	-4546
寒塘	-4547
寥廓	-4548
小径	-4549
尧舜	-4550
尽道	-4551
已见	-4552
心与	-4553
戍楼	-4554
我是	-4555
摩诘	-4556
无缘	-4557
春生	-4558
有心	-4559
有梦	-4560
村落	-4561
欸乃	-4562
河桥	-4563
清幽	-4564
滩头	-4565
猎猎	-4566
箫声	-4567
诗名	-4568
贾生	-4569
路人	-4570
辉光	-4571
遥见	-4572
隐居	-4573
高飞	-4574
龙沙	-4575
不逢	-4576
丝竹	-4577
五老	-4578
便作	-4579
初日	-4580
到来	-4581
孤鸿	-4582
宁复	-4583
山影	-4584
庭花	-4585
归鸿	-4586
心似	-4587
挥手	-4588
春衫	-4589
朝日	-4590
林外	-4591
江路	-4592
洗耳	-4593
玉台	-4594
画角	-4595
石梁	-4596
自此	-4597
荡漾	-4598
识得	-4599
诗家	-4600
赤壁	-4601
转蓬	-4602
金粟	-4603
飕飕	-4604
鬓边	-4605
龙钟	-4606
▁今年	-4607
▁从来	-4608
▁日暮	-4609
一分	-4610
不求	-4611
东皋	-4612
今为	-4613
从渠	-4614
使节	-4615
俱是	-4616
其中	-4617
北堂	-4618
北阙	-4619
叠嶂	-4620
处是	-4621
夕阴	-4622
大千	-4623
天阔	-4624
如是	-4625
孤负	-4626
布谷	-4627
成行	-4628
无疆	-4629
更欲	-4630
有佳	-4631
未回	-4632
松杉	-4633
桂子	-4634
玉为	-4635
空斋	-4636
能诗	-4637
远天	-4638
迟留	-4639
长林	-4640
陋巷	-4641
风和	-4642
龙飞	-4643
▁有客	-4644
▁信	-4645
▁淡	-4646
▁火	-4647
▁珠	-4648
▁节	-4649
三台	-4650
九秋	-4651
亭台	-4652
作意	-4653
别恨	-4654
去复	-4655
安禅	-4656
尺素	-4657
微波	-4658
扫除	-4659
散发	-4660
无迹	-4661
望眼	-4662
朝昏	-4663
柳外	-4664
欲成	-4665
江波	-4666
波心	-4667
潮落	-4668
知何	-4669
移来	-4670
细柳	-4671
结子	-4672
舟人	-4673
苦心	-4674
草绿	-4675
长堤	-4676
闲情	-4677
难尽	-4678
骅骝	-4679
高名	-4680
鸡黍	-4681
黄泉	-4682
▁山色	-4683
无限意	-4684
▁斗	-4685
▁星	-4686
三江	-4687
举杯	-4688
五日	-4689
交加	-4690
倾国	-4691
停车	-4692
光华	-4693
关塞	-4694
半天	-4695
吾心	-4696
壁上	-4697
已尽	-4698
征途	-4699
春雪	-4700
曾此	-4701
有奇	-4702
桂枝	-4703
笑人	-4704
缓步	-4705
荒山	-4706
荔子	-4707
蓬山	-4708
诗翁	-4709
野云	-4710
风过	-4711
骎骎	-4712
高林	-4713
▁昔日	-4714
▁今	-4715
▁尔	-4716
▁良	-4717
不然	-4718
不至	-4719
东园	-4720
临岐	-4721
九疑	-4722
便觉	-4723
到海	-4724
回环	-4725
如闻	-4726
山房	-4727
年时	-4728
微微	-4729
慈亲	-4730
我今	-4731
手中	-4732
挂冠	-4733
春波	-4734
此翁	-4735
水色	-4736
流出	-4737
深秋	-4738
清和	-4739
濯足	-4740
短墙	-4741
祝融	-4742
索居	-4743
聊为	-4744
避人	-4745
问君	-4746
香尘	-4747
高兴	-4748
▁几年	-4749
▁门外	-4750
一剑	-4751
佳城	-4752
便有	-4753
初晴	-4754
前头	-4755
尚在	-4756
就中	-4757
山如	-4758
山阳	-4759
广文	-4760
归迟	-4761
彻底	-4762
易水	-4763
江皋	-4764
深浅	-4765
满头	-4766
白社	-4767
白草	-4768
织女	-4769
绕屋	-4770
自为	-4771
蝉鸣	-4772
谁可	-4773
谁念	-4774
谁肯	-4775
车轮	-4776
轩冕	-4777
遗民	-4778
采薇	-4779
重叠	-4780
金茎	-4781
閒来	-4782
阅世	-4783
何处问	-4784
▁张	-4785
▁隔	-4786
且复	-4787
东归	-4788
云天	-4789
从人	-4790
元亮	-4791
全无	-4792
其间	-4793
午梦	-4794
吾乡	-4795
始见	-4796
寒潮	-4797
小池	-4798
扫地	-4799
未忘	-4800
未终	-4801
杖履	-4802
水底	-4803
沈吟	-4804
洞中	-4805
白骨	-4806
篱下	-4807
红袖	-4808
自开	-4809
茅堂	-4810
荆扉	-4811
诸方	-4812
金华	-4813
铅华	-4814
须信	-4815
驱马	-4816
▁妾	-4817
上苑	-4818
不过	-4819
倏忽	-4820
大雅	-4821
好景	-4822
寄声	-4823
山气	-4824
建章	-4825
征鞍	-4826
攲枕	-4827
无钱	-4828
日午	-4829
晚岁	-4830
月到	-4831
柳花	-4832
此老	-4833
殊方	-4834
清景	-4835
琼花	-4836
相遇	-4837
神女	-4838
绸缪	-4839
翘首	-4840
草庐	-4841
葡萄	-4842
路远	-4843
霏微	-4844
▁南山	-4845
不相见	-4846
▁朔	-4847
▁田	-4848
丹霞	-4849
人未	-4850
农事	-4851
到日	-4852
却怜	-4853
参禅	-4854
君诗	-4855
吾意	-4856
多才	-4857
太液	-4858
孤根	-4859
孤芳	-4860
将来	-4861
山腰	-4862
山间	-4863
带雪	-4864
春晴	-4865
最宜	-4866
有一	-4867
杀气	-4868
梦亦	-4869
清磬	-4870
真是	-4871
苍山	-4872
莽莽	-4873
菱花	-4874
路长	-4875
阿母	-4876
骏马	-4877
有几人	-4878
木兰舟	-4879
水东流	-4880
▁岂	-4881
世外	-4882
乌衣	-4883
云去	-4884
出矣	-4885
在天	-4886
安乐	-4887
定有	-4888
忠孝	-4889
拾得	-4890
明星	-4891
更将	-4892
月生	-4893
杜若	-4894
洲渚	-4895
相违	-4896
短檠	-4897
离恨	-4898
绣衣	-4899
莺语	-4900
还山	-4901
遥天	-4902
遥指	-4903
霜后	-4904
风飘	-4905
▁一曲	-4906
▁为爱	-4907
▁见说	-4908
不系	-4909
东门	-4910
东阁	-4911
伏枕	-4912
众芳	-4913
偶来	-4914
华胥	-4915
南湖	-4916
叶底	-4917
团圆	-4918
将老	-4919
愧我	-4920
抱瓮	-4921
故事	-4922
无名	-4923
日又	-4924
更上	-4925
松枝	-4926
桥头	-4927
欣欣	-4928
水气	-4929
江滨	-4930
灵均	-4931
物物	-4932
生春	-4933
留人	-4934
稽首	-4935
莫待	-4936
要识	-4937
诸孙	-4938
谁堪	-4939
躬耕	-4940
都忘	-4941
野店	-4942
鸾凤	-4943
▁南国	-4944
▁年来	-4945
▁芳草	-4946
与君同	-4947
夕阳红	-4948
风吹雨	-4949
▁池	-4950
▁若	-4951
上国	-4952
中无	-4953
九华	-4954
人共	-4955
人境	-4956
僧归	-4957
入户	-4958
千花	-4959
天孙	-4960
宿雾	-4961
岭云	-4962
峨峨	-4963
弦管	-4964
当窗	-4965
忧患	-4966
忽忽	-4967
新词	-4968
樵渔	-4969
欲断	-4970
气味	-4971
满路	-4972
漏声	-4973
王家	-4974
皇天	-4975
红雨	-4976
纱窗	-4977
罗裙	-4978
羡尔	-4979
舟中	-4980
萧骚	-4981
虎头	-4982
行过	-4983
言语	-4984
通宵	-4985
醒来	-4986
面壁	-4987
龙鳞	-4988
不传	-4989
不辨	-4990
乐府	-4991
人难	-4992
停舟	-4993
凉州	-4994
华阳	-4995
去时	-4996
只见	-4997
好花	-4998
小诗	-4999
尚馀	-5000
幽深	-5001
开樽	-5002
微官	-5003
恨不	-5004
时危	-5005
月来	-5006
梳头	-5007
楚人	-5008
此处	-5009
此道	-5010
泉流	-5011
烹茶	-5012
犹见	-5013
移舟	-5014
自昔	-5015
草玄	-5016
虚无	-5017
郭外	-5018
重寻	-5019
不见人	-5020
君之出矣	-5021
丈人	-5022
也应	-5023
乡梦	-5024
云台	-5025
亦复	-5026
升堂	-5027
叠叠	-5028
宫墙	-5029
尘沙	-5030
帘钩	-5031
庭下	-5032
撩乱	-5033
新丰	-5034
未阑	-5035
添得	-5036
清晨	-5037
渔郎	-5038
灵光	-5039
点头	-5040
生尘	-5041
碧流	-5042
离忧	-5043
种竹	-5044
难禁	-5045
驷马	-5046
▁道人	-5047
▁吟	-5048
不醉	-5049
主恩	-5050
九十	-5051
也无	-5052
五侯	-5053
但使	-5054
何来	-5055
何缘	-5056
作雨	-5057
兴尽	-5058
几点	-5059
夜光	-5060
威仪	-5061
孤高	-5062
往复	-5063
征帆	-5064
扶杖	-5065
提壶	-5066
更堪	-5067
来从	-5068
林花	-5069
此景	-5070
残暑	-5071
残碑	-5072
清白	-5073
片时	-5074
石磴	-5075
神明	-5076
纷纭	-5077
终岁	-5078
绿窗	-5079
翠色	-5080
老泪	-5081
能来	-5082
花残	-5083
荆榛	-5084
蓬窗	-5085
贪看	-5086
闲居	-5087
靖节	-5088
鹤唳	-5089
黄粱	-5090
▁今朝	-5091
▁地僻	-5092
万虑	-5093
上马	-5094
也自	-5095
乡里	-5096
何尝	-5097
停桡	-5098
光风	-5099
吴楚	-5100
四年	-5101
坐石	-5102
堂中	-5103
好句	-5104
孤忠	-5105
寻僧	-5106
小院	-5107
山势	-5108
归帆	-5109
慎勿	-5110
披图	-5111
橘柚	-5112
欲无	-5113
海色	-5114
澄清	-5115
犹闻	-5116
的的	-5117
相顾	-5118
系马	-5119
素琴	-5120
经雨	-5121
荼蘼	-5122
身闲	-5123
邮亭	-5124
金莲	-5125
随地	-5126
青史	-5127
风凉	-5128
高阳	-5129
黯黯	-5130
▁倦	-5131
▁拂	-5132
▁李	-5133
▁粉	-5134
□,	-5135
万世	-5136
云鬟	-5137
京尘	-5138
今无	-5139
伴我	-5140
千骑	-5141
南窗	-5142
古佛	-5143
可笑	-5144
坐中	-5145
子夜	-5146
寒潭	-5147
对床	-5148
开轩	-5149
惊飞	-5150
斜风	-5151
松桂	-5152
水如	-5153
江树	-5154
清池	-5155
渔蓑	-5156
满枝	-5157
满树	-5158
狼藉	-5159
琼楼	-5160
疏星	-5161
白璧	-5162
石城	-5163
罗袜	-5164
老我	-5165
遗像	-5166
钓丝	-5167
钧天	-5168
闲身	-5169
飞扬	-5170
▁出门	-5171
▁可怜	-5172
处士家	-5173
▁剑	-5174
一窗	-5175
丹丘	-5176
乱后	-5177
作花	-5178
凤城	-5179
南归	-5180
只因	-5181
家有	-5182
峰下	-5183
开帘	-5184
得名	-5185
支颐	-5186
放船	-5187
数日	-5188
无双	-5189
旧梦	-5190
楚王	-5191
步虚	-5192
水绕	-5193
江心	-5194
河梁	-5195
煎茶	-5196
珊珊	-5197
疑有	-5198
知几	-5199
红杏	-5200
红烛	-5201
花月	-5202
见君	-5203
趺坐	-5204
连夜	-5205
雷雨	-5206
飞仙	-5207
黄龙	-5208
一株	-5209
一竿	-5210
一雁	-5211
世所	-5212
今谁	-5213
伊人	-5214
伏波	-5215
六宫	-5216
几枝	-5217
又一	-5218
双燕	-5219
只将	-5220
吴钩	-5221
四百	-5222
堂下	-5223
复此	-5224
多愁	-5225
姓字	-5226
小桃	-5227
山村	-5228
幽思	-5229
得此	-5230
料理	-5231
曾向	-5232
望望	-5233
滚滚	-5234
衣上	-5235
踏雪	-5236
远别	-5237
重城	-5238
野桥	-5239
问我	-5240
阶下	-5241
鞦韆	-5242
▁独坐	-5243
更无人	-5244
▁台	-5245
▁铜	-5246
三伏	-5247
不浅	-5248
两两	-5249
云收	-5250
亲朋	-5251
。	-5252
,	-5253
▁	-5254
不	-5255
人	-5256
一	-5257
风	-5258
山	-5259
无	-5260
花	-5261
日	-5262
云	-5263
来	-5264
有	-5265
天	-5266
春	-5267
何	-5268
月	-5269
水	-5270
中	-5271
时	-5272
年	-5273
自	-5274
生	-5275
上	-5276
秋	-5277
雨	-5278
如	-5279
心	-5280
知	-5281
江	-5282
清	-5283
相	-5284
白	-5285
是	-5286
归	-5287
长	-5288
夜	-5289
得	-5290
寒	-5291
为	-5292
未	-5293
此	-5294
处	-5295
去	-5296
明	-5297
行	-5298
里	-5299
青	-5300
家	-5301
君	-5302
空	-5303
见	-5304
今	-5305
客	-5306
落	-5307
在	-5308
高	-5309
声	-5310
子	-5311
千	-5312
下	-5313
三	-5314
事	-5315
老	-5316
谁	-5317
深	-5318
多	-5319
万	-5320
看	-5321
新	-5322
流	-5323
门	-5324
南	-5325
飞	-5326
酒	-5327
前	-5328
我	-5329
玉	-5330
开	-5331
香	-5332
头	-5333
烟	-5334
东	-5335
已	-5336
西	-5337
树	-5338
更	-5339
可	-5340
道	-5341
林	-5342
欲	-5343
尽	-5344
梦	-5345
色	-5346
与	-5347
诗	-5348
地	-5349
成	-5350
草	-5351
出	-5352
古	-5353
作	-5354
入	-5355
石	-5356
过	-5357
书	-5358
路	-5359
雪	-5360
金	-5361
到	-5362
黄	-5363
远	-5364
意	-5365
重	-5366
情	-5367
城	-5368
海	-5369
似	-5370
红	-5371
还	-5372
几	-5373
光	-5374
独	-5375
满	-5376
愁	-5377
思	-5378
回	-5379
间	-5380
犹	-5381
能	-5382
小	-5383
平	-5384
同	-5385
朝	-5386
莫	-5387
身	-5388
世	-5389
尘	-5390
十	-5391
游	-5392
好	-5393
阳	-5394
亦	-5395
应	-5396
从	-5397
衣	-5398
旧	-5399
难	-5400
向	-5401
马	-5402
将	-5403
分	-5404
竹	-5405
外	-5406
然	-5407
叶	-5408
名	-5409
别	-5410
溪	-5411
孤	-5412
当	-5413
气	-5414
望	-5415
楼	-5416
闻	-5417
故	-5418
百	-5419
问	-5420
大	-5421
边	-5422
后	-5423
歌	-5424
晚	-5425
影	-5426
幽	-5427
起	-5428
龙	-5429
松	-5430
野	-5431
华	-5432
半	-5433
复	-5434
阴	-5435
坐	-5436
柳	-5437
枝	-5438
方	-5439
绿	-5440
岁	-5441
仙	-5442
须	-5443
湖	-5444
霜	-5445
初	-5446
五	-5447
鸟	-5448
笑	-5449
留	-5450
真	-5451
醉	-5452
舟	-5453
碧	-5454
只	-5455
两	-5456
非	-5457
台	-5458
发	-5459
公	-5460
少	-5461
随	-5462
北	-5463
安	-5464
吹	-5465
暮	-5466
残	-5467
却	-5468
梅	-5469
吾	-5470
吟	-5471
微	-5472
露	-5473
曾	-5474
窗	-5475
波	-5476
又	-5477
馀	-5478
断	-5479
语	-5480
翠	-5481
双	-5482
文	-5483
言	-5484
正	-5485
眼	-5486
关	-5487
怜	-5488
照	-5489
传	-5490
共	-5491
凉	-5492
神	-5493
寻	-5494
王	-5495
轻	-5496
对	-5497
峰	-5498
逢	-5499
离	-5500
浮	-5501
听	-5502
近	-5503
四	-5504
河	-5505
疏	-5506
芳	-5507
经	-5508
先	-5509
闲	-5510
乡	-5511
泉	-5512
居	-5513
国	-5514
物	-5515
木	-5516
惊	-5517
临	-5518
怀	-5519
夕	-5520
画	-5521
晴	-5522
数	-5523
鱼	-5524
萧	-5525
依	-5526
若	-5527
亭	-5528
之	-5529
斜	-5530
苍	-5531
庭	-5532
閒	-5533
久	-5534
堪	-5535
曲	-5536
兴	-5537
沙	-5538
九	-5539
灯	-5540
儿	-5541
堂	-5542
忆	-5543
晓	-5544
园	-5545
乐	-5546
送	-5547
静	-5548
池	-5549
终	-5550
鸣	-5551
动	-5552
雁	-5553
才	-5554
宫	-5555
绝	-5556
汉	-5557
手	-5558
爱	-5559
尚	-5560
转	-5561
苦	-5562
遥	-5563
二	-5564
病	-5565
桃	-5566
官	-5567
隔	-5568
虚	-5569
连	-5570
岂	-5571
村	-5572
识	-5573
泪	-5574
倚	-5575
寂	-5576
星	-5577
鹤	-5578
太	-5579
胜	-5580
度	-5581
忽	-5582
垂	-5583
说	-5584
桥	-5585
燕	-5586
州	-5587
因	-5588
船	-5589
隐	-5590
车	-5591
乱	-5592
休	-5593
紫	-5594
解	-5595
僧	-5596
忘	-5597
期	-5598
寄	-5599
觉	-5600
冷	-5601
横	-5602
登	-5603
常	-5604
径	-5605
所	-5606
著	-5607
田	-5608
迟	-5609
通	-5610
喜	-5611
带	-5612
面	-5613
火	-5614
学	-5615
容	-5616
早	-5617
和	-5618
丹	-5619
灵	-5620
荒	-5621
亲	-5622
首	-5623
定	-5624
恨	-5625
细	-5626
散	-5627
至	-5628
于	-5629
女	-5630
足	-5631
立	-5632
节	-5633
合	-5634
信	-5635
士	-5636
穷	-5637
以	-5638
待	-5639
群	-5640
郎	-5641
丝	-5642
便	-5643
且	-5644
杯	-5645
载	-5646
者	-5647
悲	-5648
啼	-5649
使	-5650
尔	-5651
往	-5652
元	-5653
屋	-5654
易	-5655
惟	-5656
霞	-5657
浪	-5658
悠	-5659
点	-5660
陵	-5661
用	-5662
片	-5663
楚	-5664
卧	-5665
兰	-5666
岩	-5667
消	-5668
都	-5669
破	-5670
疑	-5671
底	-5672
许	-5673
钟	-5674
景	-5675
遗	-5676
宿	-5677
薄	-5678
杨	-5679
移	-5680
岸	-5681
六	-5682
教	-5683
帘	-5684
论	-5685
凤	-5686
暗	-5687
功	-5688
会	-5689
川	-5690
冰	-5691
阁	-5692
眠	-5693
翁	-5694
纷	-5695
死	-5696
罗	-5697
夫	-5698
珠	-5699
争	-5700
昔	-5701
端	-5702
翻	-5703
种	-5704
斗	-5705
音	-5706
住	-5707
步	-5708
本	-5709
寺	-5710
最	-5711
他	-5712
那	-5713
令	-5714
锦	-5715
吴	-5716
迹	-5717
主	-5718
绕	-5719
频	-5720
原	-5721
魂	-5722
飘	-5723
直	-5724
枕	-5725
颜	-5726
字	-5727
句	-5728
缘	-5729
劳	-5730
结	-5731
交	-5732
其	-5733
琴	-5734
佳	-5735
宜	-5736
但	-5737
鬓	-5738
藏	-5739
力	-5740
栖	-5741
舞	-5742
低	-5743
短	-5744
渔	-5745
贤	-5746
茫	-5747
收	-5748
化	-5749
洞	-5750
观	-5751
涯	-5752
乘	-5753
虽	-5754
鸡	-5755
谷	-5756
也	-5757
禅	-5758
惜	-5759
师	-5760
奇	-5761
漫	-5762
忧	-5763
口	-5764
伤	-5765
急	-5766
苔	-5767
笔	-5768
逐	-5769
食	-5770
图	-5771
昏	-5772
诸	-5773
尺	-5774
折	-5775
偏	-5776
把	-5777
放	-5778
采	-5779
骨	-5780
宁	-5781
报	-5782
鼓	-5783
息	-5784
壁	-5785
欢	-5786
目	-5787
俗	-5788
尊	-5789
潮	-5790
根	-5791
念	-5792
傍	-5793
凭	-5794
卷	-5795
迷	-5796
恩	-5797
赋	-5798
帝	-5799
异	-5800
想	-5801
始	-5802
牛	-5803
机	-5804
要	-5805
聊	-5806
淡	-5807
映	-5808
圣	-5809
乾	-5810
德	-5811
八	-5812
盘	-5813
素	-5814
岭	-5815
帆	-5816
饮	-5817
皇	-5818
市	-5819
剑	-5820
催	-5821
含	-5822
章	-5823
即	-5824
全	-5825
辞	-5826
眉	-5827
伴	-5828
试	-5829
邻	-5830
摇	-5831
求	-5832
镜	-5833
佛	-5834
感	-5835
记	-5836
取	-5837
钓	-5838
极	-5839
蓬	-5840
宵	-5841
户	-5842
美	-5843
干	-5844
谢	-5845
荷	-5846
贫	-5847
齐	-5848
莲	-5849
鸿	-5850
秦	-5851
题	-5852
法	-5853
渡	-5854
负	-5855
稀	-5856
朱	-5857
罢	-5858
皆	-5859
?	-5860
床	-5861
接	-5862
茅	-5863
持	-5864
及	-5865
菊	-5866
英	-5867
携	-5868
银	-5869
了	-5870
沉	-5871
拂	-5872
迎	-5873
指	-5874
民	-5875
冠	-5876
渐	-5877
沧	-5878
孙	-5879
泥	-5880
衰	-5881
呼	-5882
征	-5883
药	-5884
湿	-5885
任	-5886
湘	-5887
总	-5888
桑	-5889
乌	-5890
骑	-5891
抱	-5892
虎	-5893
肯	-5894
李	-5895
计	-5896
掩	-5897
莺	-5898
土	-5899
竟	-5900
殿	-5901
失	-5902
角	-5903
梁	-5904
阑	-5905
狂	-5906
醒	-5907
军	-5908
暖	-5909
杖	-5910
仍	-5911
雾	-5912
悬	-5913
臣	-5914
桂	-5915
读	-5916
味	-5917
敢	-5918
雄	-5919
存	-5920
条	-5921
玄	-5922
□	-5923
愧	-5924
宝	-5925
愿	-5926
必	-5927
凄	-5928
危	-5929
洲	-5930
参	-5931
由	-5932
钱	-5933
写	-5934
肠	-5935
羽	-5936
偶	-5937
遍	-5938
塞	-5939
第	-5940
檐	-5941
浅	-5942
恐	-5943
七	-5944
兵	-5945
睡	-5946
庐	-5947
借	-5948
丛	-5949
轩	-5950
胡	-5951
添	-5952
封	-5953
昨	-5954
命	-5955
沈	-5956
倾	-5957
叹	-5958
浑	-5959
塘	-5960
并	-5961
室	-5962
舍	-5963
涧	-5964
谈	-5965
篱	-5966
理	-5967
弦	-5968
茶	-5969
扶	-5970
哀	-5971
良	-5972
鸥	-5973
墙	-5974
汝	-5975
俱	-5976
洗	-5977
响	-5978
精	-5979
侵	-5980
甘	-5981
斋	-5982
童	-5983
京	-5984
妆	-5985
比	-5986
妙	-5987
痕	-5988
挂	-5989
昼	-5990
业	-5991
弄	-5992
贵	-5993
冥	-5994
永	-5995
个	-5996
志	-5997
招	-5998
徒	-5999
净	-6000
枯	-6001
而	-6002
管	-6003
嗟	-6004
兮	-6005
棹	-6006
勤	-6007
际	-6008
举	-6009
阶	-6010
周	-6011
侯	-6012
墨	-6013
武	-6014
殊	-6015
猿	-6016
战	-6017
井	-6018
变	-6019
越	-6020
引	-6021
奈	-6022
纵	-6023
投	-6024
穿	-6025
房	-6026
积	-6027
壑	-6028
话	-6029
约	-6030
扬	-6031
圆	-6032
懒	-6033
夏	-6034
源	-6035
寥	-6036
零	-6037
赏	-6038
每	-6039
晨	-6040
丘	-6041
性	-6042
扫	-6043
闭	-6044
瑶	-6045
泽	-6046
被	-6047
怅	-6048
避	-6049
午	-6050
守	-6051
淮	-6052
盈	-6053
雷	-6054
况	-6055
倒	-6056
陈	-6057
历	-6058
形	-6059
瘦	-6060
暂	-6061
斯	-6062
修	-6063
浓	-6064
荣	-6065
浦	-6066
众	-6067
渺	-6068
层	-6069
忍	-6070
禽	-6071
熟	-6072
蝶	-6073
称	-6074
途	-6075
团	-6076
禁	-6077
唤	-6078
厌	-6079
毛	-6080
拥	-6081
怨	-6082
觅	-6083
遣	-6084
院	-6085
烛	-6086
各	-6087
暑	-6088
耕	-6089
礼	-6090
拟	-6091
友	-6092
壶	-6093
炉	-6094
调	-6095
赤	-6096
杜	-6097
笛	-6098
倦	-6099
樽	-6100
轮	-6101
荡	-6102
除	-6103
没	-6104
幸	-6105
惭	-6106
怪	-6107
壮	-6108
郭	-6109
工	-6110
境	-6111
密	-6112
铁	-6113
洒	-6114
繁	-6115
袖	-6116
屏	-6117
绣	-6118
坤	-6119
张	-6120
杀	-6121
强	-6122
程	-6123
踏	-6124
访	-6125
顾	-6126
代	-6127
唱	-6128
兼	-6129
走	-6130
就	-6131
停	-6132
内	-6133
畔	-6134
旅	-6135
凝	-6136
唯	-6137
襟	-6138
吏	-6139
耳	-6140
渠	-6141
策	-6142
词	-6143
御	-6144
阔	-6145
萝	-6146
披	-6147
秀	-6148
喧	-6149
柴	-6150
扉	-6151
乃	-6152
付	-6153
粉	-6154
鸦	-6155
养	-6156
饭	-6157
父	-6158
背	-6159
象	-6160
津	-6161
妨	-6162
社	-6163
丈	-6164
寿	-6165
馆	-6166
母	-6167
羊	-6168
漏	-6169
羡	-6170
涛	-6171
阙	-6172
阿	-6173
环	-6174
栏	-6175
买	-6176
蒲	-6177
系	-6178
崖	-6179
冬	-6180
盛	-6181
严	-6182
史	-6183
桐	-6184
鸾	-6185
儒	-6186
盖	-6187
承	-6188
销	-6189
拜	-6190
迢	-6191
再	-6192
霄	-6193
岳	-6194
沾	-6195
供	-6196
蝉	-6197
驱	-6198
宇	-6199
席	-6200
琼	-6201
受	-6202
哉	-6203
寞	-6204
锁	-6205
寸	-6206
兹	-6207
泛	-6208
艳	-6209
腰	-6210
限	-6211
推	-6212
堤	-6213
荆	-6214
势	-6215
滴	-6216
饥	-6217
浩	-6218
宽	-6219
苏	-6220
堕	-6221
属	-6222
芙	-6223
樵	-6224
咏	-6225
弹	-6226
嫌	-6227
丰	-6228
差	-6229
踪	-6230
漠	-6231
佩	-6232
布	-6233
潇	-6234
攀	-6235
扁	-6236
围	-6237
祖	-6238
陶	-6239
旗	-6240
护	-6241
夷	-6242
洛	-6243
义	-6244
嘉	-6245
实	-6246
场	-6247
追	-6248
府	-6249
凌	-6250
染	-6251
慰	-6252
郊	-6253
忙	-6254
广	-6255
打	-6256
虫	-6257
叠	-6258
巢	-6259
弟	-6260
余	-6261
巾	-6262
妇	-6263
潭	-6264
仰	-6265
羞	-6266
遇	-6267
止	-6268
笼	-6269
营	-6270
烦	-6271
亡	-6272
翩	-6273
支	-6274
黑	-6275
集	-6276
炎	-6277
索	-6278
驾	-6279
压	-6280
政	-6281
剪	-6282
脚	-6283
果	-6284
甚	-6285
宗	-6286
晖	-6287
鹿	-6288
藤	-6289
富	-6290
纤	-6291
蓉	-6292
觞	-6293
柏	-6294
泊	-6295
顶	-6296
杏	-6297
占	-6298
衔	-6299
芦	-6300
彩	-6301
农	-6302
囊	-6303
候	-6304
苑	-6305
列	-6306
珍	-6307
唐	-6308
挥	-6309
祇	-6310
尝	-6311
窥	-6312
郡	-6313
托	-6314
趣	-6315
钩	-6316
澹	-6317
鬼	-6318
迥	-6319
饱	-6320
栽	-6321
既	-6322
恶	-6323
恋	-6324
箫	-6325
宅	-6326
累	-6327
渚	-6328
界	-6329
梧	-6330
篇	-6331
郁	-6332
聚	-6333
竿	-6334
榻	-6335
肥	-6336
脱	-6337
烧	-6338
鹭	-6339
覆	-6340
矣	-6341
辉	-6342
赠	-6343
滩	-6344
误	-6345
旋	-6346
乞	-6347
痴	-6348
商	-6349
违	-6350
澄	-6351
蜀	-6352
纸	-6353
驿	-6354
鼎	-6355
裳	-6356
绮	-6357
血	-6358
予	-6359
埃	-6360
忠	-6361
升	-6362
娇	-6363
宾	-6364
曹	-6365
温	-6366
险	-6367
谋	-6368
匆	-6369
庙	-6370
扇	-6371
怕	-6372
乍	-6373
驰	-6374
杳	-6375
换	-6376
等	-6377
旌	-6378
甲	-6379
谓	-6380
兄	-6381
犬	-6382
杂	-6383
牵	-6384
废	-6385
遂	-6386
达	-6387
戏	-6388
碑	-6389
赖	-6390
卿	-6391
雀	-6392
雅	-6393
鞭	-6394
利	-6395
畏	-6396
冲	-6397
刀	-6398
县	-6399
舆	-6400
豪	-6401
啸	-6402
彻	-6403
麦	-6404
莱	-6405
殷	-6406
献	-6407
荐	-6408
絮	-6409
省	-6410
认	-6411
返	-6412
徊	-6413
祠	-6414
切	-6415
吐	-6416
幕	-6417
毫	-6418
欣	-6419
袅	-6420
斑	-6421
宴	-6422
姿	-6423
润	-6424
裘	-6425
适	-6426
摩	-6427
磨	-6428
仁	-6429
巧	-6430
遮	-6431
帐	-6432
坛	-6433
号	-6434
维	-6435
威	-6436
射	-6437
骚	-6438
酌	-6439
奏	-6440
卜	-6441
枫	-6442
冻	-6443
歇	-6444
裁	-6445
瑟	-6446
进	-6447
烂	-6448
暝	-6449
灰	-6450
刘	-6451
泣	-6452
纱	-6453
奉	-6454
巷	-6455
造	-6456
降	-6457
梢	-6458
或	-6459
彼	-6460
薰	-6461
辛	-6462
簪	-6463
服	-6464
驻	-6465
韵	-6466
善	-6467
宦	-6468
灭	-6469
勿	-6470
济	-6471
辰	-6472
伏	-6473
改	-6474
铜	-6475
趁	-6476
羁	-6477
态	-6478
网	-6479
次	-6480
侍	-6481
棠	-6482
潜	-6483
编	-6484
姑	-6485
绵	-6486
峡	-6487
雕	-6488
霁	-6489
饶	-6490
延	-6491
侬	-6492
徘	-6493
森	-6494
餐	-6495
筵	-6496
鲜	-6497
竞	-6498
福	-6499
固	-6500
表	-6501
体	-6502
丽	-6503
提	-6504
麻	-6505
区	-6506
酬	-6507
霭	-6508
哭	-6509
悟	-6510
霏	-6511
伯	-6512
惆	-6513
妾	-6514
赐	-6515
贪	-6516
鳞	-6517
履	-6518
蕊	-6519
尾	-6520
费	-6521
腾	-6522
慈	-6523
疾	-6524
量	-6525
样	-6526
退	-6527
陌	-6528
徐	-6529
致	-6530
姓	-6531
展	-6532
柔	-6533
衡	-6534
仪	-6535
辈	-6536
侣	-6537
劝	-6538
戈	-6539
鸳	-6540
堆	-6541
槛	-6542
翼	-6543
益	-6544
鹊	-6545
渊	-6546
笙	-6547
芝	-6548
昭	-6549
伊	-6550
寐	-6551
柱	-6552
朔	-6553
插	-6554
腊	-6555
劫	-6556
奔	-6557
减	-6558
濛	-6559
孝	-6560
透	-6561
番	-6562
补	-6563
笋	-6564
班	-6565
泠	-6566
健	-6567
蛮	-6568
座	-6569
塔	-6570
蒙	-6571
宣	-6572
舒	-6573
剩	-6574
己	-6575
稻	-6576
梨	-6577
陇	-6578
屈	-6579
怯	-6580
焚	-6581
虹	-6582
芜	-6583
卖	-6584
捲	-6585
瓜	-6586
屡	-6587
筑	-6588
拙	-6589
逸	-6590
诚	-6591
丁	-6592
胸	-6593
艰	-6594
俯	-6595
趋	-6596
瞻	-6597
印	-6598
稳	-6599
续	-6600
衫	-6601
施	-6602
涨	-6603
棋	-6604
颠	-6605
顷	-6606
恰	-6607
瓶	-6608
汀	-6609
侧	-6610
牙	-6611
领	-6612
酣	-6613
娟	-6614
碎	-6615
齿	-6616
袍	-6617
誇	-6618
坡	-6619
庄	-6620
濯	-6621
戎	-6622
增	-6623
排	-6624
缕	-6625
颇	-6626
探	-6627
岚	-6628
弥	-6629
藜	-6630
简	-6631
蹄	-6632
瑞	-6633
陆	-6634
拾	-6635
槎	-6636
略	-6637
岛	-6638
融	-6639
否	-6640
埋	-6641
错	-6642
萍	-6643
击	-6644
阵	-6645
肉	-6646
肃	-6647
倍	-6648
免	-6649
孔	-6650
牧	-6651
困	-6652
振	-6653
热	-6654
娥	-6655
妍	-6656
织	-6657
默	-6658
亩	-6659
弓	-6660
触	-6661
脉	-6662
庵	-6663
司	-6664
活	-6665
迁	-6666
孰	-6667
弃	-6668
抛	-6669
米	-6670
虑	-6671
滨	-6672
屐	-6673
蛇	-6674
左	-6675
翰	-6676
鲁	-6677
辟	-6678
朋	-6679
戍	-6680
湾	-6681
槐	-6682
腹	-6683
惠	-6684
浊	-6685
夹	-6686
治	-6687
掌	-6688
联	-6689
萦	-6690
诏	-6691
鉴	-6692
符	-6693
料	-6694
蜂	-6695
宛	-6696
典	-6697
刻	-6698
快	-6699
尤	-6700
氏	-6701
加	-6702
谩	-6703
末	-6704
绛	-6705
冉	-6706
庆	-6707
祗	-6708
视	-6709
仲	-6710
着	-6711
磬	-6712
篷	-6713
葛	-6714
豆	-6715
邀	-6716
巴	-6717
爽	-6718
诵	-6719
鞍	-6720
敲	-6721
习	-6722
幻	-6723
艇	-6724
制	-6725
束	-6726
具	-6727
品	-6728
惯	-6729
昌	-6730
稍	-6731
菜	-6732
奴	-6733
坠	-6734
单	-6735
裙	-6736
请	-6737
赊	-6738
般	-6739
淹	-6740
瓦	-6741
建	-6742
媚	-6743
龟	-6744
惨	-6745
纶	-6746
锄	-6747
凡	-6748
帽	-6749
委	-6750
吞	-6751
曙	-6752
置	-6753
慨	-6754
皋	-6755
叟	-6756
旷	-6757
晋	-6758
峨	-6759
綵	-6760
辨	-6761
暇	-6762
蕉	-6763
闺	-6764
穴	-6765
虞	-6766
潺	-6767
廊	-6768
役	-6769
街	-6770
衲	-6771
圃	-6772
涂	-6773
私	-6774
绪	-6775
僻	-6776
特	-6777
咽	-6778
标	-6779
怒	-6780
缓	-6781
岑	-6782
蓑	-6783
运	-6784
欺	-6785
薇	-6786
助	-6787
输	-6788
枉	-6789
萤	-6790
术	-6791
锡	-6792
恼	-6793
邑	-6794
厚	-6795
滞	-6796
舌	-6797
崇	-6798
矶	-6799
阅	-6800
凫	-6801
弱	-6802
旁	-6803
阻	-6804
猎	-6805
吊	-6806
偷	-6807
汗	-6808
藉	-6809
鸯	-6810
煮	-6811
启	-6812
涉	-6813
宋	-6814
梵	-6815
瀑	-6816
康	-6817
滋	-6818
冈	-6819
浴	-6820
蚕	-6821
蘋	-6822
逃	-6823
逼	-6824
墓	-6825
蛾	-6826
麟	-6827
摧	-6828
株	-6829
涕	-6830
嶂	-6831
傲	-6832
坚	-6833
坟	-6834
茗	-6835
旦	-6836
汤	-6837
凿	-6838
肩	-6839
刺	-6840
敛	-6841
超	-6842
炊	-6843
浸	-6844
规	-6845
博	-6846
盟	-6847
漾	-6848
拈	-6849
粟	-6850
值	-6851
继	-6852
苗	-6853
皎	-6854
摘	-6855
鼻	-6856
妻	-6857
乳	-6858
慵	-6859
防	-6860
装	-6861
帷	-6862
勋	-6863
韩	-6864
璧	-6865
仗	-6866
洁	-6867
蔬	-6868
祝	-6869
质	-6870
貌	-6871
镇	-6872
材	-6873
兔	-6874
兀	-6875
禄	-6876
则	-6877
岫	-6878
嫩	-6879
沟	-6880
线	-6881
乔	-6882
假	-6883
袂	-6884
凋	-6885
促	-6886
旬	-6887
芽	-6888
贱	-6889
抚	-6890
荔	-6891
鹅	-6892
痛	-6893
拍	-6894
籍	-6895
障	-6896
耐	-6897
砌	-6898
陪	-6899
敌	-6900
男	-6901
类	-6902
黍	-6903
橘	-6904
驴	-6905
柯	-6906
赵	-6907
刚	-6908
欠	-6909
缨	-6910
黯	-6911
焉	-6912
膏	-6913
朵	-6914
琅	-6915
纪	-6916
卢	-6917
尧	-6918
操	-6919
愚	-6920
涵	-6921
溟	-6922
汲	-6923
茂	-6924
扰	-6925
莽	-6926
滑	-6927
局	-6928
昆	-6929
笳	-6930
耿	-6931
格	-6932
瓮	-6933
颓	-6934
韶	-6935
稚	-6936
案	-6937
簇	-6938
飒	-6939
衾	-6940
祥	-6941
闾	-6942
垣	-6943
筇	-6944
鹃	-6945
沽	-6946
蒿	-6947
羹	-6948
练	-6949
反	-6950
脂	-6951
软	-6952
挽	-6953
婆	-6954
!	-6955
碍	-6956
籁	-6957
毕	-6958
孟	-6959
峦	-6960
戴	-6961
涌	-6962
畦	-6963
逝	-6964
右	-6965
科	-6966
逾	-6967
凰	-6968
珊	-6969
砚	-6970
顿	-6971
蟾	-6972
禾	-6973
藓	-6974
戒	-6975
慕	-6976
贾	-6977
执	-6978
板	-6979
薜	-6980
保	-6981
悴	-6982
芬	-6983
遭	-6984
黛	-6985
篆	-6986
钗	-6987
资	-6988
偃	-6989
渭	-6990
翔	-6991
冢	-6992
蒸	-6993
酿	-6994
垒	-6995
烽	-6996
烹	-6997
契	-6998
洪	-6999
跨	-7000
魄	-7001
渴	-7002
败	-7003
咫	-7004
注	-7005
巫	-7006
瘴	-7007
缀	-7008
楫	-7009
妃	-7010
逆	-7011
扑	-7012
烈	-7013
簟	-7014
酸	-7015
律	-7016
萋	-7017
邦	-7018
价	-7019
玩	-7020
蛟	-7021
谪	-7022
骄	-7023
娱	-7024
泻	-7025
像	-7026
部	-7027
架	-7028
剧	-7029
宰	-7030
悔	-7031
澜	-7032
馨	-7033
彭	-7034
皮	-7035
蟠	-7036
巡	-7037
曳	-7038
季	-7039
蔓	-7040
狼	-7041
递	-7042
宠	-7043
氛	-7044
鬟	-7045
激	-7046
眺	-7047
脩	-7048
鼠	-7049
叫	-7050
祀	-7051
藻	-7052
榆	-7053
棘	-7054
臂	-7055
拨	-7056
智	-7057
讵	-7058
较	-7059
陂	-7060
雏	-7061
《	-7062
》	-7063
循	-7064
魏	-7065
寝	-7066
瓢	-7067
岐	-7068
仆	-7069
让	-7070
讲	-7071
优	-7072
混	-7073
贞	-7074
鸭	-7075
盆	-7076
夺	-7077
砧	-7078
嘶	-7079
晏	-7080
笺	-7081
钵	-7082
勒	-7083
巨	-7084
铺	-7085
蓝	-7086
蛩	-7087
贼	-7088
电	-7089
范	-7090
植	-7091
篁	-7092
薪	-7093
希	-7094
卫	-7095
妒	-7096
跃	-7097
荫	-7098
醪	-7099
藕	-7100
霖	-7101
挟	-7102
梳	-7103
胆	-7104
医	-7105
的	-7106
览	-7107
箭	-7108
辇	-7109
畴	-7110
稽	-7111
伫	-7112
序	-7113
闽	-7114
答	-7115
咸	-7116
菲	-7117
衮	-7118
款	-7119
芒	-7120
牢	-7121
缠	-7122
桡	-7123
抽	-7124
纳	-7125
鸠	-7126
辽	-7127
耽	-7128
段	-7129
菱	-7130
丧	-7131
茎	-7132
位	-7133
盐	-7134
店	-7135
隅	-7136
鞋	-7137
浣	-7138
蚁	-7139
筹	-7140
赴	-7141
俄	-7142
湛	-7143
禹	-7144
啄	-7145
镫	-7146
蹉	-7147
授	-7148
瀛	-7149
卮	-7150
曛	-7151
笠	-7152
蹇	-7153
狐	-7154
缺	-7155
斧	-7156
憔	-7157
握	-7158
扃	-7159
郑	-7160
整	-7161
颂	-7162
裹	-7163
遐	-7164
徵	-7165
膝	-7166
娘	-7167
选	-7168
窟	-7169
霓	-7170
髻	-7171
倩	-7172
熙	-7173
鲸	-7174
萼	-7175
幅	-7176
损	-7177
议	-7178
峭	-7179
灶	-7180
愈	-7181
掷	-7182
沿	-7183
猜	-7184
纹	-7185
捧	-7186
宸	-7187
梯	-7188
匹	-7189
卑	-7190
备	-7191
现	-7192
蛙	-7193
飙	-7194
姬	-7195
坞	-7196
逍	-7197
棱	-7198
讶	-7199
鹰	-7200
翳	-7201
遽	-7202
祸	-7203
廷	-7204
蜡	-7205
谒	-7206
闱	-7207
毡	-7208
犊	-7209
髯	-7210
榴	-7211
蔽	-7212
嫁	-7213
拔	-7214
檀	-7215
泰	-7216
沦	-7217
滔	-7218
牡	-7219
央	-7220
铭	-7221
秘	-7222
针	-7223
贺	-7224
跎	-7225
厨	-7226
墟	-7227
溜	-7228
函	-7229
劲	-7230
肝	-7231
仞	-7232
凛	-7233
叔	-7234
妖	-7235
污	-7236
擅	-7237
鳌	-7238
吠	-7239
悄	-7240
翛	-7241
伐	-7242
匡	-7243
嗔	-7244
效	-7245
巍	-7246
椒	-7247
肌	-7248
权	-7249
乎	-7250
敬	-7251
粲	-7252
隆	-7253
廉	-7254
羲	-7255
苇	-7256
琶	-7257
顽	-7258
油	-7259
砂	-7260
缥	-7261
专	-7262
绳	-7263
欹	-7264
顺	-7265
么	-7266
坏	-7267
蕙	-7268
盏	-7269
设	-7270
洋	-7271
斟	-7272
犀	-7273
沼	-7274
据	-7275
搔	-7276
派	-7277
按	-7278
刹	-7279
挑	-7280
耸	-7281
闹	-7282
伦	-7283
涓	-7284
筠	-7285
旱	-7286
虏	-7287
貂	-7288
夙	-7289
寰	-7290
徙	-7291
崔	-7292
锋	-7293
杪	-7294
器	-7295
耀	-7296
雉	-7297
牖	-7298
葵	-7299
叩	-7300
衢	-7301
均	-7302
焦	-7303
沐	-7304
琵	-7305
浆	-7306
拳	-7307
阮	-7308
告	-7309
灌	-7310
辱	-7311
队	-7312
皓	-7313
决	-7314
抹	-7315
模	-7316
粗	-7317
魔	-7318
鲈	-7319
鹄	-7320
拄	-7321
舂	-7322
突	-7323
贮	-7324
些	-7325
骢	-7326
充	-7327
庾	-7328
瓯	-7329
绡	-7330
眸	-7331
磴	-7332
速	-7333
豁	-7334
赢	-7335
吉	-7336
蟹	-7337
熏	-7338
航	-7339
弯	-7340
樯	-7341
憎	-7342
疆	-7343
舜	-7344
襄	-7345
屯	-7346
署	-7347
菰	-7348
骊	-7349
煎	-7350
珑	-7351
葬	-7352
噪	-7353
揽	-7354
罪	-7355
检	-7356
漂	-7357
域	-7358
妄	-7359
榜	-7360
卒	-7361
晶	-7362
壤	-7363
惹	-7364
扣	-7365
豹	-7366
葭	-7367
鸪	-7368
算	-7369
抵	-7370
骏	-7371
晦	-7372
患	-7373
搜	-7374
浙	-7375
驭	-7376
巳	-7377
呈	-7378
桨	-7379
荻	-7380
疲	-7381
螺	-7382
傅	-7383
帏	-7384
仓	-7385
恍	-7386
匀	-7387
腥	-7388
裾	-7389
翅	-7390
芭	-7391
垆	-7392
讯	-7393
佐	-7394
召	-7395
邪	-7396
玲	-7397
缈	-7398
龄	-7399
鹧	-7400
释	-7401
震	-7402
尖	-7403
课	-7404
葱	-7405
莎	-7406
裂	-7407
谱	-7408
攲	-7409
矜	-7410
嵩	-7411
斛	-7412
黎	-7413
栗	-7414
蓼	-7415
憩	-7416
毋	-7417
尉	-7418
溅	-7419
捐	-7420
桓	-7421
煖	-7422
躬	-7423
玕	-7424
舫	-7425
谏	-7426
倘	-7427
奚	-7428
樱	-7429
包	-7430
娑	-7431
寓	-7432
评	-7433
卓	-7434
钧	-7435
割	-7436
晕	-7437
窈	-7438
粱	-7439
丸	-7440
铃	-7441
屦	-7442
惬	-7443
毒	-7444
潦	-7445
辙	-7446
慎	-7447
胥	-7448
敝	-7449
矫	-7450
羸	-7451
溶	-7452
鲤	-7453
基	-7454
担	-7455
溯	-7456
贯	-7457
俊	-7458
漪	-7459
预	-7460
颗	-7461
屠	-7462
嵬	-7463
昧	-7464
茸	-7465
屿	-7466
庶	-7467
庸	-7468
旆	-7469
攒	-7470
秉	-7471
橹	-7472
贡	-7473
箧	-7474
鹦	-7475
栋	-7476
祭	-7477
骖	-7478
冶	-7479
缄	-7480
耻	-7481
刑	-7482
液	-7483
蜜	-7484
躯	-7485
旨	-7486
跳	-7487
陀	-7488
奠	-7489
耶	-7490
迂	-7491
邮	-7492
剡	-7493
粤	-7494
湍	-7495
甫	-7496
怡	-7497
办	-7498
浇	-7499
申	-7500
盗	-7501
蔼	-7502
衙	-7503
嬉	-7504
敷	-7505
眷	-7506
附	-7507
袭	-7508
铅	-7509
穆	-7510
匪	-7511
丞	-7512
匣	-7513
暄	-7514
朽	-7515
犯	-7516
诉	-7517
哦	-7518
雍	-7519
校	-7520
犁	-7521
陋	-7522
考	-7523
仕	-7524
鹏	-7525
睹	-7526
猛	-7527
茧	-7528
兆	-7529
辔	-7530
纡	-7531
陟	-7532
擎	-7533
俎	-7534
杉	-7535
宙	-7536
琐	-7537
穹	-7538
虬	-7539
蝴	-7540
勇	-7541
艺	-7542
漱	-7543
职	-7544
霸	-7545
戟	-7546
杰	-7547
熊	-7548
驹	-7549
葩	-7550
吃	-7551
撩	-7552
簿	-7553
警	-7554
隈	-7555
傥	-7556
卉	-7557
嚣	-7558
肤	-7559
赫	-7560
誉	-7561
蹊	-7562
瑚	-7563
萱	-7564
褐	-7565
遁	-7566
冤	-7567
示	-7568
篮	-7569
钿	-7570
靡	-7571
榭	-7572
峻	-7573
翘	-7574
显	-7575
纨	-7576
挹	-7577
截	-7578
璃	-7579
稠	-7580
铸	-7581
靖	-7582
颦	-7583
骤	-7584
夭	-7585
掠	-7586
蠹	-7587
、	-7588
伸	-7589
艾	-7590
享	-7591
沸	-7592
湲	-7593
檄	-7594
骥	-7595
侠	-7596
寡	-7597
削	-7598
寇	-7599
恭	-7600
羌	-7601
乖	-7602
悽	-7603
率	-7604
谐	-7605
圭	-7606
慷	-7607
昂	-7608
涩	-7609
耆	-7610
颐	-7611
鹂	-7612
兽	-7613
篙	-7614
它	-7615
怆	-7616
胎	-7617
蓟	-7618
戚	-7619
捷	-7620
训	-7621
捣	-7622
唇	-7623
慧	-7624
恒	-7625
救	-7626
族	-7627
隙	-7628
莼	-7629
恣	-7630
谙	-7631
涤	-7632
帖	-7633
幡	-7634
潘	-7635
络	-7636
峤	-7637
椽	-7638
焰	-7639
筝	-7640
箕	-7641
纯	-7642
跻	-7643
额	-7644
廿	-7645
狎	-7646
狗	-7647
匝	-7648
豫	-7649
灼	-7650
煌	-7651
剥	-7652
漆	-7653
撑	-7654
楹	-7655
氲	-7656
乏	-7657
徽	-7658
莓	-7659
垄	-7660
杵	-7661
芰	-7662
冒	-7663
忌	-7664
蔡	-7665
鹉	-7666
介	-7667
拱	-7668
筒	-7669
党	-7670
朗	-7671
猷	-7672
柄	-7673
樊	-7674
銮	-7675
驯	-7676
坊	-7677
楸	-7678
监	-7679
债	-7680
媒	-7681
撼	-7682
蹑	-7683
墀	-7684
阖	-7685
呵	-7686
彤	-7687
翡	-7688
拭	-7689
揖	-7690
秧	-7691
稼	-7692
倏	-7693
悦	-7694
缆	-7695
袜	-7696
诛	-7697
辕	-7698
冕	-7699
状	-7700
滟	-7701
辅	-7702
虾	-7703
驼	-7704
仅	-7705
互	-7706
勾	-7707
啭	-7708
悭	-7709
芸	-7710
粒	-7711
诀	-7712
脸	-7713
窦	-7714
彷	-7715
俨	-7716
斩	-7717
粮	-7718
臾	-7719
奋	-7720
逅	-7721
韦	-7722
轴	-7723
骸	-7724
癖	-7725
舸	-7726
蚤	-7727
邂	-7728
婵	-7729
淳	-7730
饵	-7731
呜	-7732
峥	-7733
藩	-7734
幔	-7735
嗣	-7736
栊	-7737
茵	-7738
验	-7739
颊	-7740
嵘	-7741
稷	-7742
窕	-7743
缚	-7744
偕	-7745
濑	-7746
阡	-7747
咄	-7748
醺	-7749
庞	-7750
茨	-7751
丑	-7752
普	-7753
判	-7754
毵	-7755
吕	-7756
培	-7757
控	-7758
构	-7759
歧	-7760
崎	-7761
甜	-7762
窃	-7763
饷	-7764
幄	-7765
浔	-7766
凶	-7767
务	-7768
祈	-7769
准	-7770
获	-7771
龛	-7772
储	-7773
箸	-7774
帙	-7775
蕃	-7776
赞	-7777
研	-7778
做	-7779
册	-7780
淅	-7781
亚	-7782
勉	-7783
填	-7784
扪	-7785
粥	-7786
蝇	-7787
橐	-7788
炷	-7789
腐	-7790
配	-7791
雌	-7792
缁	-7793
饼	-7794
麓	-7795
泼	-7796
秪	-7797
窄	-7798
苕	-7799
蕨	-7800
闷	-7801
瞿	-7802
谊	-7803
这	-7804
蛰	-7805
讴	-7806
唳	-7807
夸	-7808
穗	-7809
翮	-7810
产	-7811
攻	-7812
刍	-7813
鸱	-7814
喷	-7815
曰	-7816
逗	-7817
阜	-7818
敞	-7819
榛	-7820
迫	-7821
醇	-7822
飕	-7823
茆	-7824
淑	-7825
绶	-7826
亏	-7827
吁	-7828
麾	-7829
淋	-7830
碛	-7831
糊	-7832
克	-7833
奕	-7834
奸	-7835
瓣	-7836
胭	-7837
蒹	-7838
姚	-7839
磊	-7840
嚼	-7841
恙	-7842
豚	-7843
閟	-7844
槁	-7845
缝	-7846
贝	-7847
狱	-7848
胧	-7849
霰	-7850
鸢	-7851
札	-7852
榔	-7853
裴	-7854
弗	-7855
例	-7856
灞	-7857
蛛	-7858
廓	-7859
枣	-7860
郢	-7861
巅	-7862
荧	-7863
拘	-7864
柘	-7865
隋	-7866
俦	-7867
尼	-7868
盼	-7869
趺	-7870
麋	-7871
冯	-7872
拖	-7873
斤	-7874
炼	-7875
逋	-7876
蕖	-7877
汎	-7878
麝	-7879
吼	-7880
氤	-7881
择	-7882
旭	-7883
践	-7884
尹	-7885
琉	-7886
擘	-7887
梭	-7888
矢	-7889
泓	-7890
溢	-7891
哲	-7892
烬	-7893
箨	-7894
蜗	-7895
誓	-7896
迤	-7897
董	-7898
吸	-7899
昙	-7900
滚	-7901
桧	-7902
替	-7903
港	-7904
竭	-7905
缩	-7906
亮	-7907
淫	-7908
肆	-7909
讨	-7910
阊	-7911
舄	-7912
辜	-7913
麈	-7914
式	-7915
邱	-7916
亿	-7917
濡	-7918
炬	-7919
墅	-7920
租	-7921
邈	-7922
项	-7923
髭	-7924
惮	-7925
秾	-7926
鍊	-7927
筋	-7928
肺	-7929
芹	-7930
骝	-7931
岖	-7932
崩	-7933
汾	-7934
飏	-7935
幢	-7936
徂	-7937
掬	-7938
漓	-7939
秃	-7940
檠	-7941
灾	-7942
褰	-7943
淩	-7944
潸	-7945
竖	-7946
嗜	-7947
幼	-7948
厥	-7949
愤	-7950
沃	-7951
谣	-7952
膺	-7953
偈	-7954
碣	-7955
窠	-7956
箔	-7957
聪	-7958
萸	-7959
蒂	-7960
鹜	-7961
害	-7962
燃	-7963
俭	-7964
柰	-7965
梗	-7966
爵	-7967
搅	-7968
琳	-7969
辄	-7970
诘	-7971
炙	-7972
绾	-7973
醅	-7974
帛	-7975
琢	-7976
绩	-7977
抗	-7978
爪	-7979
胶	-7980
蘼	-7981
漳	-7982
鼙	-7983
完	-7984
迈	-7985
夔	-7986
朦	-7987
绽	-7988
骎	-7989
麒	-7990
给	-7991
蠡	-7992
毁	-7993
嘲	-7994
录	-7995
欤	-7996
组	-7997
钦	-7998
驷	-7999
孺	-8000
奁	-8001
斫	-8002
瞰	-8003
酥	-8004
纲	-8005
毗	-8006
眇	-8007
菩	-8008
蹙	-8009
馥	-8010
屑	-8011
廛	-8012
涟	-8013
臭	-8014
堞	-8015
恻	-8016
褒	-8017
财	-8018
贻	-8019
惘	-8020
拚	-8021
栈	-8022
测	-8023
湄	-8024
播	-8025
述	-8026
僮	-8027
唾	-8028
闪	-8029
厓	-8030
揭	-8031
暴	-8032
纬	-8033
婴	-8034
恃	-8035
努	-8036
哗	-8037
皱	-8038
證	-8039
踰	-8040
翎	-8041
贴	-8042
讼	-8043
掀	-8044
援	-8045
洽	-8046
税	-8047
苟	-8048
豺	-8049
坦	-8050
幌	-8051
瑩	-8052
袁	-8053
雠	-8054
仇	-8055
缸	-8056
崙	-8057
晤	-8058
灿	-8059
盍	-8060
描	-8061
炯	-8062
育	-8063
虔	-8064
毂	-8065
泄	-8066
泗	-8067
窝	-8068
迸	-8069
嵯	-8070
晒	-8071
沥	-8072
赛	-8073
迩	-8074
啾	-8075
巘	-8076
柝	-8077
濠	-8078
秩	-8079
笏	-8080
苞	-8081
蚊	-8082
饰	-8083
棂	-8084
版	-8085
芍	-8086
腴	-8087
慢	-8088
朴	-8089
删	-8090
婉	-8091
姜	-8092
掖	-8093
猗	-8094
萄	-8095
锥	-8096
鲍	-8097
块	-8098
甸	-8099
腻	-8100
萌	-8101
遵	-8102
旄	-8103
烘	-8104
冀	-8105
蜃	-8106
垢	-8107
酷	-8108
乙	-8109
恸	-8110
竺	-8111
枢	-8112
沤	-8113
渌	-8114
宪	-8115
忝	-8116
挺	-8117
芋	-8118
蕤	-8119
榕	-8120
碌	-8121
蔷	-8122
刃	-8123
娃	-8124
躅	-8125
鲛	-8126
恬	-8127
蔚	-8128
槿	-8129
苧	-8130
鄙	-8131
嵇	-8132
挲	-8133
掣	-8134
酹	-8135
魁	-8136
妹	-8137
梓	-8138
邯	-8139
惺	-8140
晞	-8141
煞	-8142
畅	-8143
蜕	-8144
饯	-8145
瞒	-8146
箱	-8147
绅	-8148
厉	-8149
尸	-8150
衷	-8151
韬	-8152
颁	-8153
庚	-8154
珂	-8155
狭	-8156
踞	-8157
郸	-8158
叉	-8159
敕	-8160
槃	-8161
责	-8162
革	-8163
伶	-8164
剖	-8165
峙	-8166
辍	-8167
醴	-8168
庖	-8169
彦	-8170
畿	-8171
腮	-8172
紧	-8173
蕴	-8174
婿	-8175
饿	-8176
罔	-8177
捉	-8178
窍	-8179
罍	-8180
聒	-8181
涎	-8182
蹈	-8183
钥	-8184
拓	-8185
堵	-8186
渥	-8187
糟	-8188
敦	-8189
炭	-8190
腕	-8191
蟋	-8192
鬣	-8193
盂	-8194
粼	-8195
罅	-8196
拆	-8197
棺	-8198
缟	-8199
酲	-8200
髓	-8201
缭	-8202
蟀	-8203
馔	-8204
坎	-8205
彫	-8206
浥	-8207
秣	-8208
颍	-8209
颖	-8210
鹢	-8211
囚	-8212
肱	-8213
阎	-8214
鹓	-8215
伟	-8216
熳	-8217
襦	-8218
阆	-8219
俸	-8220
薤	-8221
黏	-8222
你	-8223
栾	-8224
椀	-8225
瞳	-8226
菖	-8227
蘸	-8228
岱	-8229
;	-8230
釜	-8231
慇	-8232
姊	-8233
谟	-8234
邺	-8235
镂	-8236
导	-8237
皂	-8238
祚	-8239
隘	-8240
技	-8241
枰	-8242
柑	-8243
爰	-8244
荼	-8245
轧	-8246
镌	-8247
偿	-8248
斸	-8249
爨	-8250
荇	-8251
蘧	-8252
蹰	-8253
叱	-8254
峣	-8255
杞	-8256
蓦	-8257
跸	-8258
邸	-8259
瑕	-8260
衬	-8261
瞬	-8262
签	-8263
閤	-8264
黔	-8265
崦	-8266
讹	-8267
喝	-8268
嫦	-8269
挈	-8270
聋	-8271
抟	-8272
咨	-8273
掉	-8274
撞	-8275
筱	-8276
铎	-8277
搴	-8278
舣	-8279
苒	-8280
曝	-8281
妓	-8282
徼	-8283
椿	-8284
矮	-8285
玑	-8286
帅	-8287
骂	-8288
曦	-8289
粘	-8290
螭	-8291
蹋	-8292
霆	-8293
裔	-8294
哺	-8295
嶙	-8296
毬	-8297
沱	-8298
询	-8299
辘	-8300
泮	-8301
溺	-8302
畹	-8303
縠	-8304
逶	-8305
骇	-8306
凯	-8307
惧	-8308
汴	-8309
矗	-8310
究	-8311
篝	-8312
蛱	-8313
掇	-8314
泯	-8315
洄	-8316
陛	-8317
齑	-8318
仄	-8319
僚	-8320
岘	-8321
弘	-8322
欧	-8323
遨	-8324
帻	-8325
癯	-8326
诧	-8327
协	-8328
巉	-8329
撒	-8330
漉	-8331
绂	-8332
踟	-8333
淙	-8334
禦	-8335
诞	-8336
叨	-8337
狸	-8338
祷	-8339
轺	-8340
唧	-8341
稿	-8342
睛	-8343
邹	-8344
铗	-8345
卸	-8346
杼	-8347
闰	-8348
匠	-8349
筐	-8350
蚀	-8351
旃	-8352
皤	-8353
茱	-8354
侪	-8355
菡	-8356
踌	-8357
坼	-8358
肘	-8359
苜	-8360
萏	-8361
陨	-8362
抑	-8363
杭	-8364
甃	-8365
统	-8366
赓	-8367
摹	-8368
枚	-8369
涴	-8370
牍	-8371
芊	-8372
袈	-8373
颅	-8374
愔	-8375
耘	-8376
脑	-8377
厦	-8378
嘘	-8379
沛	-8380
纫	-8381
蓿	-8382
蠲	-8383
谤	-8384
啜	-8385
惑	-8386
棒	-8387
甑	-8388
秫	-8389
谅	-8390
撚	-8391
泾	-8392
演	-8393
碗	-8394
祐	-8395
芷	-8396
茜	-8397
衍	-8398
裟	-8399
锵	-8400
哑	-8401
坑	-8402
娉	-8403
沅	-8404
谨	-8405
鲙	-8406
伎	-8407
弊	-8408
汪	-8409
狮	-8410
砥	-8411
缪	-8412
谭	-8413
岷	-8414
擢	-8415
穰	-8416
逊	-8417
骋	-8418
喉	-8419
觥	-8420
霍	-8421
伽	-8422
峋	-8423
睨	-8424
谗	-8425
堑	-8426
湫	-8427
瞥	-8428
苓	-8429
轸	-8430
倡	-8431
兜	-8432
斲	-8433
迦	-8434
逡	-8435
岧	-8436
椎	-8437
囷	-8438
绘	-8439
辩	-8440
钺	-8441
嗤	-8442
弧	-8443
渍	-8444
螯	-8445
霾	-8446
绰	-8447
蜻	-8448
陷	-8449
嗅	-8450
恁	-8451
恤	-8452
憾	-8453
拿	-8454
瓠	-8455
箪	-8456
脊	-8457
屹	-8458
汩	-8459
粳	-8460
罨	-8461
罾	-8462
坂	-8463
牲	-8464
臼	-8465
酝	-8466
仿	-8467
嫣	-8468
盎	-8469
哥	-8470
杓	-8471
珰	-8472
躇	-8473
铛	-8474
馈	-8475
曷	-8476
滕	-8477
疗	-8478
蹴	-8479
爇	-8480
舠	-8481
衿	-8482
轰	-8483
婢	-8484
忻	-8485
笥	-8486
蜓	-8487
辋	-8488
恢	-8489
汨	-8490
埽	-8491
婷	-8492
彝	-8493
曜	-8494
鸰	-8495
喻	-8496
瑰	-8497
鹘	-8498
伍	-8499
悉	-8500
戢	-8501
潋	-8502
蒋	-8503
裤	-8504
邓	-8505
叙	-8506
旒	-8507
枪	-8508
焕	-8509
腔	-8510
臞	-8511
铢	-8512
鞅	-8513
鹳	-8514
划	-8515
撷	-8516
屧	-8517
璞	-8518
秽	-8519
脆	-8520
坳	-8521
簧	-8522
股	-8523
寮	-8524
沁	-8525
沫	-8526
玻	-8527
禊	-8528
蹲	-8529
迅	-8530
槽	-8531
橙	-8532
淇	-8533
绍	-8534
蚌	-8535
跋	-8536
酴	-8537
髣	-8538
喃	-8539
宏	-8540
扈	-8541
樗	-8542
鼍	-8543
婚	-8544
柚	-8545
潢	-8546
燎	-8547
碓	-8548
髴	-8549
啖	-8550
醾	-8551
创	-8552
勺	-8553
厄	-8554
涸	-8555
疮	-8556
赭	-8557
钻	-8558
俟	-8559
旂	-8560
棉	-8561
硕	-8562
褪	-8563
瀰	-8564
抄	-8565
擒	-8566
曼	-8567
沌	-8568
糁	-8569
茁	-8570
藿	-8571
豕	-8572
坰	-8573
爆	-8574
猩	-8575
级	-8576
缅	-8577
亨	-8578
弩	-8579
棚	-8580
诺	-8581
颔	-8582
嵌	-8583
瞑	-8584
罥	-8585
觌	-8586
觚	-8587
霅	-8588
亘	-8589
抬	-8590
罄	-8591
讥	-8592
需	-8593
骞	-8594
鳖	-8595
汇	-8596
盲	-8597
酡	-8598
奢	-8599
稔	-8600
逞	-8601
姮	-8602
嬴	-8603
旐	-8604
督	-8605
货	-8606
赚	-8607
阃	-8608
靥	-8609
劣	-8610
屣	-8611
拒	-8612
柁	-8613
罕	-8614
芥	-8615
茹	-8616
薛	-8617
邵	-8618
颈	-8619
鹫	-8620
僵	-8621
勘	-8622
奎	-8623
磷	-8624
觑	-8625
卯	-8626
塍	-8627
寅	-8628
滥	-8629
繇	-8630
轳	-8631
遏	-8632
峒	-8633
泫	-8634
睇	-8635
缑	-8636
菽	-8637
轨	-8638
鹗	-8639
滂	-8640
酤	-8641
鹚	-8642
允	-8643
副	-8644
栩	-8645
浃	-8646
虱	-8647
谯	-8648
钝	-8649
霹	-8650
欸	-8651
燄	-8652
球	-8653
碾	-8654
绸	-8655
舅	-8656
萃	-8657
蓄	-8658
藁	-8659
诰	-8660
剔	-8661
厅	-8662
摊	-8663
窜	-8664
菟	-8665
隼	-8666
雩	-8667
姝	-8668
悯	-8669
绯	-8670
荚	-8671
雳	-8672
币	-8673
掾	-8674
曈	-8675
淼	-8676
葡	-8677
谬	-8678
骅	-8679
怎	-8680
琪	-8681
荠	-8682
讳	-8683
匏	-8684
嘱	-8685
沂	-8686
眩	-8687
祉	-8688
罩	-8689
霎	-8690
彊	-8691
愆	-8692
攘	-8693
滓	-8694
瀼	-8695
砖	-8696
纭	-8697
荀	-8698
釐	-8699
韭	-8700
弭	-8701
彰	-8702
憨	-8703
捕	-8704
睿	-8705
绀	-8706
赌	-8707
驶	-8708
驺	-8709
伞	-8710
柿	-8711
泬	-8712
粪	-8713
鞦	-8714
飐	-8715
髅	-8716
戛	-8717
猫	-8718
刊	-8719
吝	-8720
徉	-8721
笃	-8722
箴	-8723
纻	-8724
闇	-8725
伪	-8726
劈	-8727
摄	-8728
暾	-8729
漙	-8730
猴	-8731
羯	-8732
遑	-8733
邛	-8734
铄	-8735
铿	-8736
什	-8737
员	-8738
孱	-8739
棣	-8740
榼	-8741
渝	-8742
煨	-8743
绫	-8744
膳	-8745
菌	-8746
娄	-8747
崚	-8748
聘	-8749
舷	-8750
阍	-8751
靴	-8752
卦	-8753
弋	-8754
枭	-8755
桴	-8756
佞	-8757
佯	-8758
卤	-8759
奥	-8760
帚	-8761
拣	-8762
歆	-8763
滇	-8764
牌	-8765
狡	-8766
肢	-8767
趾	-8768
懊	-8769
槟	-8770
汹	-8771
穑	-8772
缤	-8773
肇	-8774
舲	-8775
贳	-8776
邃	-8777
耦	-8778
脍	-8779
觜	-8780
鞠	-8781
咬	-8782
堠	-8783
斥	-8784
楞	-8785
樾	-8786
牒	-8787
玳	-8788
绢	-8789
螀	-8790
鄂	-8791
壳	-8792
察	-8793
寤	-8794
概	-8795
烁	-8796
闼	-8797
圜	-8798
祁	-8799
秖	-8800
绨	-8801
勃	-8802
墩	-8803
嶒	-8804
懿	-8805
析	-8806
翱	-8807
孩	-8808
畬	-8809
禋	-8810
窅	-8811
葺	-8812
袋	-8813
拊	-8814
澌	-8815
脾	-8816
订	-8817
详	-8818
镳	-8819
骈	-8820
搆	-8821
楮	-8822
葳	-8823
贲	-8824
隽	-8825
韆	-8826
呻	-8827
孥	-8828
蜍	-8829
黠	-8830
齧	-8831
徜	-8832
攸	-8833
斓	-8834
桔	-8835
笈	-8836
鄱	-8837
扳	-8838
沮	-8839
舶	-8840
豸	-8841
飖	-8842
飧	-8843
飨	-8844
刈	-8845
岗	-8846
枥	-8847
窣	-8848
簌	-8849
絺	-8850
鸬	-8851
鹡	-8852
刮	-8853
斝	-8854
澈	-8855
嘴	-8856
娜	-8857
昊	-8858
瘁	-8859
飔	-8860
髑	-8861
■	-8862
旻	-8863
濆	-8864
翟	-8865
嫔	-8866
泷	-8867
蚓	-8868
谦	-8869
踯	-8870
阒	-8871
檗	-8872
沓	-8873
爷	-8874
闉	-8875
估	-8876
惚	-8877
瀹	-8878
盥	-8879
缣	-8880
膻	-8881
鲲	-8882
俛	-8883
兢	-8884
绊	-8885
罂	-8886
噫	-8887
庇	-8888
毳	-8889
涪	-8890
潞	-8891
箓	-8892
萎	-8893
蟆	-8894
陡	-8895
枳	-8896
槔	-8897
殢	-8898
炳	-8899
缃	-8900
蘖	-8901
谶	-8902
轲	-8903
隶	-8904
鴂	-8905
倪	-8906
嘤	-8907
肖	-8908
葫	-8909
蔗	-8910
贷	-8911
驽	-8912
嘈	-8913
堰	-8914
娆	-8915
廪	-8916
渤	-8917
溽	-8918
砾	-8919
洼	-8920
遒	-8921
陲	-8922
煤	-8923
绥	-8924
羃	-8925
貔	-8926
阗	-8927
魅	-8928
鸂	-8929
鼕	-8930
媪	-8931
濂	-8932
瞎	-8933
糜	-8934
蹀	-8935
辖	-8936
侑	-8937
莪	-8938
垓	-8939
靓	-8940
耗	-8941
赪	-8942
晡	-8943
绠	-8944
觐	-8945
谛	-8946
亸	-8947
审	-8948
杆	-8949
淘	-8950
糠	-8951
耒	-8952
葆	-8953
蜿	-8954
迭	-8955
沄	-8956
浚	-8957
贶	-8958
鸶	-8959
圞	-8960
逦	-8961
酪	-8962
锐	-8963
刷	-8964
篘	-8965
臧	-8966
萨	-8967
佗	-8968
冽	-8969
吻	-8970
姥	-8971
婺	-8972
崄	-8973
摆	-8974
枻	-8975
猪	-8976
踵	-8977
锸	-8978
饕	-8979
丙	-8980
抔	-8981
殉	-8982
炫	-8983
炮	-8984
跹	-8985
奄	-8986
恹	-8987
批	-8988
槌	-8989
熨	-8990
穫	-8991
菁	-8992
裛	-8993
躔	-8994
迓	-8995
釭	-8996
卅	-8997
恕	-8998
搏	-8999
杲	-9000
燠	-9001
骧	-9002
咒	-9003
垠	-9004
帕	-9005
悼	-9006
拗	-9007
核	-9008
疠	-9009
皑	-9010
硬	-9011
铙	-9012
鹑	-9013
亹	-9014
偎	-9015
咿	-9016
挝	-9017
矛	-9018
箬	-9019
羔	-9020
酩	-9021
喔	-9022
库	-9023
掘	-9024
溆	-9025
烝	-9026
绚	-9027
臆	-9028
丫	-9029
址	-9030
妩	-9031
弈	-9032
溉	-9033
瀚	-9034
瘗	-9035
禀	-9036
译	-9037
诣	-9038
诬	-9039
赍	-9040
钜	-9041
孕	-9042
栉	-9043
涡	-9044
砺	-9045
筼	-9046
荜	-9047
贰	-9048
軿	-9049
鞯	-9050
鶒	-9051
丕	-9052
亟	-9053
俩	-9054
嫖	-9055
崆	-9056
徇	-9057
愠	-9058
摸	-9059
跏	-9060
镵	-9061
刁	-9062
卵	-9063
椰	-9064
淞	-9065
甥	-9066
瘠	-9067
瞩	-9068
筜	-9069
耄	-9070
胄	-9071
蜩	-9072
跪	-9073
驮	-9074
啮	-9075
徨	-9076
忒	-9077
氓	-9078
濒	-9079
狄	-9080
畎	-9081
荏	-9082
舻	-9083
蜚	-9084
裕	-9085
贩	-9086
邙	-9087
醑	-9088
剌	-9089
咎	-9090
型	-9091
搀	-9092
炽	-9093
燧	-9094
甍	-9095
磐	-9096
粹	-9097
缬	-9098
茔	-9099
惰	-9100
楝	-9101
楠	-9102
皴	-9103
矩	-9104
筌	-9105
缯	-9106
莉	-9107
仔	-9108
佑	-9109
姻	-9110
揩	-9111
旸	-9112
汶	-9113
珥	-9114
疋	-9115
簸	-9116
缊	-9117
讽	-9118
辗	-9119
酊	-9120
骀	-9121
鲵	-9122
括	-9123
泚	-9124
烨	-9125
疴	-9126
缰	-9127
茉	-9128
蛤	-9129
譬	-9130
鹥	-9131
龚	-9132
帜	-9133
敏	-9134
曩	-9135
涔	-9136
漕	-9137
肚	-9138
茯	-9139
蜒	-9140
诃	-9141
髦	-9142
栎	-9143
棕	-9144
狖	-9145
确	-9146
舰	-9147
钞	-9148
鸽	-9149
匈	-9150
嗷	-9151
悰	-9152
措	-9153
汞	-9154
珀	-9155
畜	-9156
筛	-9157
脐	-9158
蔌	-9159
薝	-9160
暧	-9161
氅	-9162
璇	-9163
璚	-9164
睫	-9165
罟	-9166
聿	-9167
荦	-9168
薏	-9169
钉	-9170
闵	-9171
阕	-9172
髫	-9173
鹪	-9174
搭	-9175
摅	-9176
瞢	-9177
窘	-9178
芗	-9179
荪	-9180
谆	-9181
侈	-9182
匕	-9183
杷	-9184
盌	-9185
绻	-9186
谑	-9187
倖	-9188
惶	-9189
戾	-9190
朅	-9191
泱	-9192
泳	-9193
焙	-9194
罴	-9195
菘	-9196
鵩	-9197
查	-9198
渎	-9199
牺	-9200
痒	-9201
虐	-9202
赎	-9203
刬	-9204
刳	-9205
喘	-9206
嵚	-9207
忤	-9208
槩	-9209
茏	-9210
诈	-9211
叵	-9212
啻	-9213
拽	-9214
槊	-9215
沆	-9216
涅	-9217
湔	-9218
爻	-9219
狩	-9220
猊	-9221
笾	-9222
蓠	-9223
馋	-9224
骐	-9225
鼋	-9226
厩	-9227
孚	-9228
晃	-9229
玺	-9230
瑁	-9231
睥	-9232
蓂	-9233
辀	-9234
鴳	-9235
嚬	-9236
溷	-9237
燥	-9238
瓷	-9239
禺	-9240
聆	-9241
艘	-9242
锤	-9243
黼	-9244
㶁	-9245
劬	-9246
孽	-9247
戮	-9248
晷	-9249
熠	-9250
裨	-9251
赣	-9252
侔	-9253
嘹	-9254
圈	-9255
姨	-9256
宕	-9257
岏	-9258
琥	-9259
痾	-9260
竽	-9261
蘅	-9262
跛	-9263
䍦	-9264
佣	-9265
湓	-9266
滪	-9267
燐	-9268
缱	-9269
缴	-9270
肴	-9271
葑	-9272
阪	-9273
呢	-9274
殁	-9275
汁	-9276
牟	-9277
玷	-9278
睢	-9279
翊	-9280
荄	-9281
薮	-9282
躞	-9283
闸	-9284
鹩	-9285
串	-9286
殖	-9287
潼	-9288
矍	-9289
祟	-9290
:	-9291
妥	-9292
泡	-9293
痍	-9294
缉	-9295
缗	-9296
芡	-9297
谡	-9298
鹍	-9299
娲	-9300
巇	-9301
撰	-9302
栅	-9303
桄	-9304
濩	-9305
瀣	-9306
猱	-9307
罚	-9308
诠	-9309
距	-9310
饧	-9311
髡	-9312
鳄	-9313
寨	-9314
庑	-9315
憧	-9316
暌	-9317
殇	-9318
殒	-9319
汐	-9320
祛	-9321
肓	-9322
蓍	-9323
镰	-9324
欷	-9325
歉	-9326
湮	-9327
礴	-9328
祓	-9329
缶	-9330
证	-9331
镕	-9332
饴	-9333
馁	-9334
鹁	-9335
匙	-9336
巑	-9337
彴	-9338
枇	-9339
繫	-9340
缫	-9341
讣	-9342
谥	-9343
赦	-9344
踽	-9345
髀	-9346
叮	-9347
售	-9348
喙	-9349
屩	-9350
挠	-9351
挼	-9352
磔	-9353
箜	-9354
翚	-9355
覃	-9356
靠	-9357
摵	-9358
桕	-9359
础	-9360
磻	-9361
篌	-9362
谀	-9363
豳	-9364
逻	-9365
励	-9366
厢	-9367
弁	-9368
忏	-9369
押	-9370
掺	-9371
狞	-9372
艮	-9373
诡	-9374
诮	-9375
醮	-9376
醯	-9377
驩	-9378
仑	-9379
捻	-9380
揉	-9381
楷	-9382
绎	-9383
罹	-9384
蕲	-9385
蕾	-9386
袷	-9387
钏	-9388
鬻	-9389
匮	-9390
姹	-9391
帔	-9392
忿	-9393
扆	-9394
殃	-9395
淤	-9396
芟	-9397
苡	-9398
辂	-9399
铓	-9400
隰	-9401
颙	-9402
骆	-9403
倭	-9404
怖	-9405
捎	-9406
歔	-9407
洙	-9408
琯	-9409
祲	-9410
竦	-9411
篪	-9412
绦	-9413
腋	-9414
蔻	-9415
券	-9416
厮	-9417
呕	-9418
孜	-9419
抖	-9420
撤	-9421
泖	-9422
濮	-9423
皖	-9424
肋	-9425
臻	-9426
邕	-9427
匿	-9428
扼	-9429
昽	-9430
朮	-9431
殆	-9432
洮	-9433
皪	-9434
筏	-9435
綦	-9436
诩	-9437
诳	-9438
逮	-9439
锻	-9440
隳	-9441
鶗	-9442
拦	-9443
橛	-9444
滹	-9445
琤	-9446
睦	-9447
脯	-9448
茕	-9449
荅	-9450
蒯	-9451
蜉	-9452
蝗	-9453
铮	-9454
阐	-9455
雹	-9456
呦	-9457
妪	-9458
摛	-9459
毅	-9460
牂	-9461
翥	-9462
跌	-9463
酱	-9464
阀	-9465
冗	-9466
卞	-9467
珉	-9468
舵	-9469
酉	-9470
钳	-9471
镞	-9472
饫	-9473
魑	-9474
鸲	-9475
鹆	-9476
亢	-9477
婀	-9478
岿	-9479
敖	-9480
枌	-9481
栀	-9482
獭	-9483
祢	-9484
蠢	-9485
钲	-9486
企	-9487
侮	-9488
兕	-9489
孑	-9490
烱	-9491
牯	-9492
猖	-9493
缲	-9494
藐	-9495
蚩	-9496
蝼	-9497
貅	-9498
“	-9499
”	-9500
噬	-9501
埙	-9502
幰	-9503
滦	-9504
煦	-9505
矰	-9506
纩	-9507
莘	-9508
谕	-9509
辊	-9510
鏖	-9511
陔	-9512
颉	-9513
鲫	-9514
墉	-9515
岌	-9516
幂	-9517
挨	-9518
歙	-9519
浯	-9520
牝	-9521
脏	-9522
轓	-9523
咀	-9524
浒	-9525
绋	-9526
该	-9527
蹬	-9528
隧	-9529
侄	-9530
俞	-9531
垫	-9532
埒	-9533
崧	-9534
巩	-9535
桁	-9536
琰	-9537
瞋	-9538
籥	-9539
苛	-9540
赘	-9541
蹶	-9542
逵	-9543
颤	-9544
哂	-9545
啁	-9546
嘒	-9547
徭	-9548
抡	-9549
捏	-9550
捩	-9551
玦	-9552
瘿	-9553
盻	-9554
矾	-9555
縻	-9556
荞	-9557
莞	-9558
跚	-9559
醍	-9560
镊	-9561
阇	-9562
饲	-9563
骓	-9564
黾	-9565
侏	-9566
偪	-9567
剃	-9568
攫	-9569
殚	-9570
熬	-9571
甓	-9572
胫	-9573
菑	-9574
赀	-9575
醐	-9576
陕	-9577
陬	-9578
鼾	-9579
亥	-9580
噤	-9581
囿	-9582
娶	-9583
忉	-9584
拶	-9585
渑	-9586
狙	-9587
缔	-9588
蝠	-9589
轿	-9590
佚	-9591
咛	-9592
擞	-9593
敧	-9594
瘳	-9595
秤	-9596
諠	-9597
飓	-9598
骠	-9599
呆	-9600
喑	-9601
庠	-9602
拉	-9603
稗	-9604
绷	-9605
荑	-9606
虺	-9607
蜘	-9608
诲	-9609
蹁	-9610
闯	-9611
骛	-9612
鸮	-9613
哢	-9614
孀	-9615
峄	-9616
崭	-9617
抉	-9618
晁	-9619
歊	-9620
澧	-9621
琊	-9622
窖	-9623
纛	-9624
腑	-9625
贬	-9626
鳜	-9627
厕	-9628
崛	-9629
嶷	-9630
彗	-9631
懦	-9632
戊	-9633
淄	-9634
玛	-9635
璨	-9636
筮	-9637
纠	-9638
鎗	-9639
鞚	-9640
骁	-9641
鹇	-9642
愉	-9643
戌	-9644
摺	-9645
榾	-9646
殄	-9647
涣	-9648
甄	-9649
皈	-9650
胪	-9651
舐	-9652
螟	-9653
靳	-9654
劄	-9655
吒	-9656
憀	-9657
搦	-9658
溥	-9659
澳	-9660
璋	-9661
紬	-9662
芃	-9663
荃	-9664
莳	-9665
鞮	-9666
鹞	-9667
俪	-9668
儗	-9669
剂	-9670
咍	-9671
壖	-9672
嫂	-9673
届	-9674
弛	-9675
怊	-9676
旎	-9677
旰	-9678
沚	-9679
滁	-9680
燮	-9681
笄	-9682
籯	-9683
耜	-9684
艋	-9685
苴	-9686
裸	-9687
詹	-9688
跟	-9689
轶	-9690
遄	-9691
镬	-9692
鳏	-9693
凑	-9694
埭	-9695
惩	-9696
搓	-9697
漭	-9698
琚	-9699
籴	-9700
膊	-9701
诔	-9702
豢	-9703
叛	-9704
圉	-9705
沔	-9706
潆	-9707
璜	-9708
瓴	-9709
皦	-9710
舴	-9711
蜺	-9712
裀	-9713
裯	-9714
跬	-9715
雎	-9716
雒	-9717
鳷	-9718
丐	-9719
仝	-9720
俾	-9721
嘿	-9722
夤	-9723
巽	-9724
恳	-9725
揣	-9726
晻	-9727
暨	-9728
沩	-9729
燔	-9730
疵	-9731
窑	-9732
筦	-9733
繻	-9734
耨	-9735
腿	-9736
袒	-9737
诜	-9738
赁	-9739
邢	-9740
鬯	-9741
鼐	-9742
唼	-9743
弼	-9744
晔	-9745
柮	-9746
瓈	-9747
眈	-9748
莹	-9749
蘩	-9750
襆	-9751
跄	-9752
蹠	-9753
邗	-9754
酋	-9755
醁	-9756
醋	-9757
颢	-9758
鬅	-9759
黜	-9760
鼯	-9761
姗	-9762
媸	-9763
抠	-9764
楂	-9765
澎	-9766
玫	-9767
瑙	-9768
纾	-9769
缙	-9770
羝	-9771
翕	-9772
跣	-9773
轼	-9774
镝	-9775
騑	-9776
鹴	-9777
啧	-9778
壕	-9779
彀	-9780
懵	-9781
捍	-9782
撮	-9783
晌	-9784
樛	-9785
泞	-9786
爬	-9787
牁	-9788
矻	-9789
粢	-9790
絷	-9791
罡	-9792
跂	-9793
酾	-9794
醲	-9795
馌	-9796
鬙	-9797
鲂	-9798
咳	-9799
崒	-9800
枵	-9801
桀	-9802
樨	-9803
渟	-9804
篦	-9805
籞	-9806
胁	-9807
蝣	-9808
螳	-9809
铨	-9810
驳	-9811
鬖	-9812
鹈	-9813
齁	-9814
傀	-9815
喁	-9816
圻	-9817
槲	-9818
毓	-9819
煜	-9820
瘖	-9821
眄	-9822
砻	-9823
纽	-9824
绤	-9825
聃	-9826
胞	-9827
茄	-9828
茭	-9829
菹	-9830
衽	-9831
袪	-9832
褥	-9833
锅	-9834
饤	-9835
魃	-9836
鹖	-9837
儋	-9838
咤	-9839
噀	-9840
嵋	-9841
挫	-9842
撇	-9843
痼	-9844
盾	-9845
肮	-9846
脔	-9847
蝙	-9848
裈	-9849
襜	-9850
蹭	-9851
辣	-9852
遰	-9853
阏	-9854
侨	-9855
冱	-9856
唫	-9857
喈	-9858
圯	-9859
忡	-9860
忪	-9861
恂	-9862
捋	-9863
捞	-9864
棐	-9865
淬	-9866
湟	-9867
稏	-9868
苾	-9869
茝	-9870
菼	-9871
蒜	-9872
酽	-9873
鳣	-9874
俜	-9875
儡	-9876
勖	-9877
壅	-9878
忺	-9879
惕	-9880
旖	-9881
某	-9882
殡	-9883
毹	-9884
翣	-9885
萁	-9886
虢	-9887
诱	-9888
谴	-9889
购	-9890
跕	-9891
蹒	-9892
躁	-9893
阛	-9894
凹	-9895
喟	-9896
宓	-9897
揄	-9898
琮	-9899
璀	-9900
瘼	-9901
蓓	-9902
诙	-9903
隗	-9904
骡	-9905
鲊	-9906
嗒	-9907
嚇	-9908
嫠	-9909
桅	-9910
橡	-9911
櫜	-9912
汰	-9913
渗	-9914
溃	-9915
灏	-9916
猕	-9917
畤	-9918
瘢	-9919
糖	-9920
耋	-9921
荤	-9922
莆	-9923
鄞	-9924
霈	-9925
鶱	-9926
䆉	-9927
伧	-9928
呗	-9929
啬	-9930
奖	-9931
徕	-9932
悍	-9933
昵	-9934
桶	-9935
榄	-9936
淝	-9937
禧	-9938
篴	-9939
粝	-9940
糕	-9941
羚	-9942
踢	-9943
餔	-9944
鸩	-9945
麇	-9946
黻	-9947
龊	-9948
傩	-9949
厖	-9950
坪	-9951
廨	-9952
旟	-9953
歈	-9954
氍	-9955
獠	-9956
瞽	-9957
绉	-9958
缇	-9959
艭	-9960
蓊	-9961
裌	-9962
郴	-9963
鲥	-9964
剜	-9965
哪	-9966
悤	-9967
扛	-9968
拼	-9969
枨	-9970
械	-9971
殽	-9972
汍	-9973
灺	-9974
琨	-9975
绒	-9976
舳	-9977
苎	-9978
诤	-9979
偻	-9980
呀	-9981
媛	-9982
孳	-9983
嵓	-9984
拯	-9985
柂	-9986
泌	-9987
淖	-9988
犍	-9989
眦	-9990
祜	-9991
祯	-9992
箦	-9993
繄	-9994
蒺	-9995
觇	-9996
镮	-9997
騧	-9998
鵁	-9999
鹔	-10000
堡	-10001
夐	-10002
姒	-10003
慑	-10004
拢	-10005
楣	-10006
氎	-10007
滉	-10008
獐	-10009
琬	-10010
睽	-10011
粕	-10012
膜	-10013
蚬	-10014
觳	-10015
輶	-10016
辚	-10017
郤	-10018
阱	-10019
鶄	-10020
伺	-10021
叆	-10022
呱	-10023
嘏	-10024
慄	-10025
慊	-10026
慭	-10027
斡	-10028
朕	-10029
涘	-10030
炀	-10031
炜	-10032
熹	-10033
畸	-10034
箠	-10035
篚	-10036
肸	-10037
胚	-10038
舁	-10039
艎	-10040
薙	-10041
蝀	-10042
衒	-10043
诒	-10044
赉	-10045
邅	-10046
隤	-10047
韫	-10048
鲭	-10049
吮	-10050
呖	-10051
彬	-10052
搢	-10053
撄	-10054
斐	-10055
椠	-10056
砭	-10057
缦	-10058
苹	-10059
蔫	-10060
蘤	-10061
诫	-10062
迄	-10063
騕	-10064
黉	-10065
僦	-10066
喂	-10067
囗	-10068
埏	-10069
嫉	-10070
惫	-10071
晼	-10072
狯	-10073
秕	-10074
翾	-10075
腷	-10076
蠖	-10077
衅	-10078
踊	-10079
輀	-10080
遘	-10081
酎	-10082
铩	-10083
餍	-10084
侃	-10085
啅	-10086
嘻	-10087
娈	-10088
媲	-10089
彘	-10090
恪	-10091
恺	-10092
曀	-10093
澒	-10094
甬	-10095
箑	-10096
粽	-10097
絜	-10098
纺	-10099
胝	-10100
芾	-10101
苋	-10102
褊	-10103
锣	-10104
吭	-10105
圮	-10106
昃	-10107
桩	-10108
泸	-10109
玙	-10110
璈	-10111
璠	-10112
瓒	-10113
町	-10114
畀	-10115
皛	-10116
硎	-10117
絪	-10118
罽	-10119
螂	-10120
褚	-10121
豗	-10122
霙	-10123
霪	-10124
鞬	-10125
鬨	-10126
塌	-10127
塑	-10128
愦	-10129
椹	-10130
榇	-10131
榷	-10132
樟	-10133
澥	-10134
瑜	-10135
畛	-10136
篾	-10137
绁	-10138
荥	-10139
蒌	-10140
蚃	-10141
蚯	-10142
跑	-10143
迨	-10144
醨	-10145
醽	-10146
锱	-10147
闬	-10148
鳊	-10149
鸷	-10150
坝	-10151
壬	-10152
娭	-10153
屎	-10154
嶰	-10155
抢	-10156
搥	-10157
枒	-10158
栝	-10159
槭	-10160
洵	-10161
琛	-10162
瘵	-10163
筚	-10164
篑	-10165
縢	-10166
纂	-10167
罘	-10168
肿	-10169
臈	-10170
菉	-10171
蛄	-10172
锢	-10173
镛	-10174
颃	-10175
鲠	-10176
俘	-10177
垤	-10178
怠	-10179
憺	-10180
揆	-10181
暍	-10182
盱	-10183
蟪	-10184
誵	-10185
谖	-10186
轫	-10187
钤	-10188
铦	-10189
隍	-10190
飗	-10191
鹯	-10192
俚	-10193
厂	-10194
坻	-10195
垦	-10196
娼	-10197
屺	-10198
徬	-10199
楯	-10200
毙	-10201
浈	-10202
潏	-10203
猬	-10204
畚	-10205
痊	-10206
眵	-10207
砑	-10208
磈	-10209
笞	-10210
笭	-10211
箵	-10212
腓	-10213
莠	-10214
莸	-10215
觫	-10216
贽	-10217
郫	-10218
镐	-10219
鞘	-10220
魍	-10221
鯈	-10222
募	-10223
悌	-10224
扊	-10225
晰	-10226
枷	-10227
枸	-10228
欃	-10229
沴	-10230
滃	-10231
疟	-10232
矧	-10233
祼	-10234
笆	-10235
簋	-10236
籀	-10237
纥	-10238
蕞	-10239
虿	-10240
蛊	-10241
蜑	-10242
觱	-10243
跫	-10244
鍪	-10245
锼	-10246
饬	-10247
魉	-10248
鷟	-10249
鹣	-10250
「	-10251
兑	-10252
哨	-10253
喋	-10254
圩	-10255
嫡	-10256
宥	-10257
怛	-10258
戆	-10259
戕	-10260
斁	-10261
柽	-10262
欻	-10263
澡	-10264
眨	-10265
睍	-10266
砀	-10267
祺	-10268
耰	-10269
胯	-10270
菅	-10271
蓐	-10272
蚋	-10273
蚨	-10274
褦	-10275
襶	-10276
赶	-10277
迪	-10278
邳	-10279
锷	-10280
陉	-10281
鲑	-10282
」	-10283
伛	-10284
哮	-10285
幛	-10286
惓	-10287
扅	-10288
橄	-10289
歼	-10290
汛	-10291
浏	-10292
燹	-10293
砢	-10294
磋	-10295
窆	-10296
箐	-10297
罝	-10298
聱	-10299
苻	-10300
蒐	-10301
蛎	-10302
裆	-10303
谠	-10304
豉	-10305
霤	-10306
韝	-10307
鸑	-10308
凸	-10309
奂	-10310
悒	-10311
揶	-10312
棼	-10313
榈	-10314
沪	-10315
淰	-10316
溧	-10317
熄	-10318
璿	-10319
篸	-10320
肪	-10321
蛸	-10322
蝌	-10323
襁	-10324
谄	-10325
酢	-10326
釂	-10327
鋋	-10328
钢	-10329
阓	-10330
伥	-10331
侥	-10332
塾	-10333
崟	-10334
崿	-10335
忱	-10336
挛	-10337
椟	-10338
汭	-10339
淀	-10340
瑾	-10341
皞	-10342
睆	-10343
硙	-10344
磁	-10345
禳	-10346
蓁	-10347
蕡	-10348
褓	-10349
貉	-10350
趯	-10351
镆	-10352
霢	-10353
鲋	-10354
匍	-10355
奶	-10356
嵫	-10357
帨	-10358
悃	-10359
戡	-10360
挐	-10361
斿	-10362
昕	-10363
朓	-10364
楖	-10365
澶	-10366
珞	-10367
瓞	-10368
硗	-10369
艑	-10370
苌	-10371
茑	-10372
蔺	-10373
蚝	-10374
蟒	-10375
袄	-10376
赡	-10377
迍	-10378
鬘	-10379
伉	-10380
刖	-10381
剸	-10382
噩	-10383
弇	-10384
怍	-10385
炒	-10386
狺	-10387
璆	-10388
瓿	-10389
穟	-10390
羿	-10391
胤	-10392
蝎	-10393
蟏	-10394
襕	-10395
譊	-10396
诋	-10397
逖	-10398
黥	-10399
匐	-10400
哩	-10401
垞	-10402
悁	-10403
槚	-10404
氐	-10405
炤	-10406
苫	-10407
菀	-10408
蔑	-10409
谧	-10410
趍	-10411
蹐	-10412
邠	-10413
钁	-10414
铉	-10415
阨	-10416
霂	-10417
騃	-10418
鲚	-10419
哽	-10420
坭	-10421
埼	-10422
堙	-10423
塿	-10424
墦	-10425
婪	-10426
寖	-10427
幮	-10428
惋	-10429
懋	-10430
拌	-10431
柩	-10432
歘	-10433
毰	-10434
毸	-10435
澍	-10436
瀫	-10437
璎	-10438
聩	-10439
膴	-10440
荛	-10441
蜷	-10442
赝	-10443
郧	-10444
鄣	-10445
馑	-10446
鬃	-10447
僝	-10448
哇	-10449
啰	-10450
壸	-10451
岵	-10452
嵝	-10453
帼	-10454
捡	-10455
搬	-10456
楔	-10457
獬	-10458
眯	-10459
睟	-10460
矿	-10461
稊	-10462
稌	-10463
糵	-10464
缛	-10465
罳	-10466
虮	-10467
虻	-10468
蚪	-10469
赈	-10470
踆	-10471
阉	-10472
陁	-10473
雊	-10474
饔	-10475
骦	-10476
鱍	-10477
僭	-10478
哓	-10479
喤	-10480
嫱	-10481
寔	-10482
帟	-10483
彪	-10484
摐	-10485
柢	-10486
洳	-10487
浼	-10488
涿	-10489
湃	-10490
溱	-10491
潴	-10492
磕	-10493
禖	-10494
窭	-10495
笕	-10496
簦	-10497
纁	-10498
综	-10499
缧	-10500
胃	-10501
螫	-10502
螮	-10503
袛	-10504
觊	-10505
遝	-10506
醢	-10507
驎	-10508
僽	-10509
勍	-10510
噇	-10511
婕	-10512
嶪	-10513
愬	-10514
抒	-10515
枋	-10516
椅	-10517
榱	-10518
洸	-10519
滤	-10520
烜	-10521
猝	-10522
秭	-10523
綍	-10524
胙	-10525
芼	-10526
襞	-10527
赃	-10528
跗	-10529
骕	-10530
鸧	-10531
乂	-10532
俶	-10533
叇	-10534
咮	-10535
妤	-10536
娩	-10537
娴	-10538
嵎	-10539
怙	-10540
摝	-10541
旴	-10542
槜	-10543
浍	-10544
涝	-10545
漩	-10546
狷	-10547
璁	-10548
疫	-10549
瞌	-10550
硖	-10551
祧	-10552
窿	-10553
篡	-10554
篨	-10555
纮	-10556
褫	-10557
觏	-10558
訾	-10559
踔	-10560
蹻	-10561
酂	-10562
铘	-10563
鞲	-10564
頫	-10565
顸	-10566
颛	-10567
馘	-10568
鬒	-10569
僰	-10570
劾	-10571
呶	-10572
咦	-10573
寘	-10574
嵷	-10575
帢	-10576
怏	-10577
挞	-10578
挤	-10579
掞	-10580
摽	-10581
椁	-10582
殳	-10583
汜	-10584
洑	-10585
渰	-10586
湜	-10587
筴	-10588
籧	-10589
肄	-10590
臊	-10591
蛆	-10592
褶	-10593
豨	-10594
贸	-10595
輴	-10596
辑	-10597
键	-10598
馗	-10599
駮	-10600
麑	-10601
.	-10602
僛	-10603
噭	-10604
岣	-10605
崮	-10606
巃	-10607
幪	-10608
惇	-10609
旺	-10610
朣	-10611
枞	-10612
椷	-10613
歃	-10614
汊	-10615
洧	-10616
漘	-10617
狻	-10618
玖	-10619
瑛	-10620
祔	-10621
站	-10622
緌	-10623
莩	-10624
萑	-10625
衎	-10626
褕	-10627
貊	-10628
跧	-10629
踉	-10630
铲	-10631
锯	-10632
阚	-10633
饘	-10634
鹠	-10635
丱	-10636
件	-10637
刲	-10638
呷	-10639
哄	-10640
壹	-10641
姐	-10642
尪	-10643
屟	-10644
崤	-10645
扩	-10646
揾	-10647
浐	-10648
湩	-10649
笮	-10650
篥	-10651
膂	-10652
荩	-10653
蔟	-10654
蛉	-10655
蟫	-10656
躲	-10657
陴	-10658
雰	-10659
霶	-10660
鞞	-10661
颟	-10662
颡	-10663
骘	-10664
鬐	-10665
麛	-10666
龌	-10667
俳	-10668
傞	-10669
咆	-10670
坫	-10671
壈	-10672
套	-10673
帮	-10674
帱	-10675
掐	-10676
搁	-10677
柈	-10678
棨	-10679
泐	-10680
淂	-10681
澨	-10682
癸	-10683
矼	-10684
簉	-10685
糗	-10686
絓	-10687
纣	-10688
缡	-10689
茀	-10690
菔	-10691
藋	-10692
蛬	-10693
蜮	-10694
蜴	-10695
裒	-10696
赧	-10697
辎	-10698
郦	-10699
闳	-10700
鞿	-10701
馂	-10702
黟	-10703
偬	-10704
匾	-10705
嘐	-10706
嵂	-10707
嶓	-10708
帑	-10709
忖	-10710
恓	-10711
桢	-10712
欬	-10713
毖	-10714
瀁	-10715
珩	-10716
琏	-10717
疃	-10718
癃	-10719
眢	-10720
碇	-10721
笊	-10722
筥	-10723
蟢	-10724
褉	-10725
诎	-10726
谔	-10727
赑	-10728
迕	-10729
郗	-10730
鄠	-10731
鬲	-10732
鲰	-10733
鸊	-10734
鸺	-10735
龉	-10736
亳	-10737
佔	-10738
倥	-10739
凊	-10740
嗈	-10741
嗥	-10742
嗫	-10743
嗽	-10744
囹	-10745
垩	-10746
堧	-10747
墐	-10748
尨	-10749
峪	-10750
嶕	-10751
恫	-10752
恽	-10753
愕	-10754
杠	-10755
柬	-10756
狈	-10757
猺	-10758
珈	-10759
璘	-10760
畋	-10761
畯	-10762
眚	-10763
睎	-10764
箩	-10765
紞	-10766
罛	-10767
莅	-10768
蔀	-10769
蕝	-10770
蜊	-10771
螽	-10772
袆	-10773
褷	-10774
讫	-10775
讷	-10776
邴	-10777
郅	-10778
铫	-10779
雯	-10780
霣	-10781
韨	-10782
劖	-10783
圄	-10784
屃	-10785
悖	-10786
悱	-10787
悸	-10788
惝	-10789
撕	-10790
於	-10791
昉	-10792
歜	-10793
毯	-10794
泺	-10795
煅	-10796
牷	-10797
犒	-10798
犴	-10799
猥	-10800
琲	-10801
疢	-10802
盒	-10803
笱	-10804
筤	-10805
絇	-10806
綀	-10807
纚	-10808
艓	-10809
莒	-10810
葚	-10811
蒻	-10812
藟	-10813
蚍	-10814
螗	-10815
趱	-10816
踬	-10817
辐	-10818
酺	-10819
锹	-10820
騄	-10821
黝	-10822
黩	-10823
倅	-10824
倜	-10825
刓	-10826
哈	-10827
噎	-10828
坌	-10829
夥	-10830
娓	-10831
尻	-10832
廖	-10833
怿	-10834
慝	-10835
攧	-10836
桦	-10837
溘	-10838
煇	-10839
疚	-10840
痡	-10841
砍	-10842
礧	-10843
窌	-10844
簏	-10845
糇	-10846
糈	-10847
肾	-10848
菂	-10849
蒱	-10850
蛋	-10851
蜥	-10852
褴	-10853
襫	-10854
谚	-10855
轭	-10856
迮	-10857
魈	-10858
鳅	-10859
鴐	-10860
麰	-10861
龃	-10862
匼	-10863
嚅	-10864
囧	-10865
圹	-10866
娅	-10867
嬖	-10868
幞	-10869
怵	-10870
懂	-10871
抃	-10872
搊	-10873
擪	-10874
杈	-10875
歛	-10876
炰	-10877
砦	-10878
砰	-10879
窒	-10880
縳	-10881
荟	-10882
薯	-10883
蛹	-10884
袯	-10885
裓	-10886
裲	-10887
謦	-10888
诅	-10889
谜	-10890
贿	-10891
踠	-10892
逭	-10893
酆	-10894
隮	-10895
驔	-10896
鹙	-10897
佃	-10898
佥	-10899
俏	-10900
儆	-10901
咐	-10902
啐	-10903
壒	-10904
屙	-10905
崷	-10906
幺	-10907
戽	-10908
扎	-10909
抆	-10910
摈	-10911
摴	-10912
昴	-10913
暵	-10914
柞	-10915
栱	-10916
桤	-10917
楩	-10918
燬	-10919
狠	-10920
瞠	-10921
脰	-10922
腼	-10923
苣	-10924
蓧	-10925
蕣	-10926
蕺	-10927
蠓	-10928
谂	-10929
谍	-10930
赂	-10931
鞓	-10932
騣	-10933
鲇	-10934
鵊	-10935
鷇	-10936
鹎	-10937
鹾	-10938
龁	-10939
俑	-10940
倔	-10941
僣	-10942
卐	-10943
另	-10944
喳	-10945
垛	-10946
埴	-10947
妫	-10948
廑	-10949
愀	-10950
擿	-10951
棬	-10952
櫩	-10953
洎	-10954
洟	-10955
煽	-10956
熇	-10957
猧	-10958
甔	-10959
畲	-10960
瘝	-10961
磅	-10962
箯	-10963
粜	-10964
缒	-10965
缮	-10966
腯	-10967
薨	-10968
誊	-10969
趼	-10970
遹	-10971
鄜	-10972
鄮	-10973
醰	-10974
隃	-10975
鞶	-10976
骼	-10977
鹬	-10978
龀	-10979
『	-10980
亍	-10981
仳	-10982
唶	-10983
噰	-10984
奫	-10985
媵	-10986
屼	-10987
巀	-10988
彳	-10989
徯	-10990
怦	-10991
揠	-10992
晬	-10993
栴	-10994
沬	-10995
洚	-10996
淆	-10997
燋	-10998
猾	-10999
獍	-11000
疣	-11001
疼	-11002
痹	-11003
皙	-11004
窱	-11005
簴	-11006
籋	-11007
縆	-11008
耍	-11009
耔	-11010
聂	-11011
胼	-11012
艟	-11013
荭	-11014
蠃	-11015
谲	-11016
躧	-11017
镡	-11018
骭	-11019
鸤	-11020
麂	-11021
鼪	-11022
䰟	-11023
佺	-11024
佻	-11025
卬	-11026
咻	-11027
哙	-11028
坱	-11029
埤	-11030
她	-11031
悚	-11032
憍	-11033
抺	-11034
杕	-11035
柙	-11036
桷	-11037
椮	-11038
汧	-11039
炕	-11040
狨	-11041
玠	-11042
秸	-11043
稂	-11044
穸	-11045
窊	-11046
簖	-11047
羖	-11048
翀	-11049
舛	-11050
蒇	-11051
蚿	-11052
蜢	-11053
蟭	-11054
袢	-11055
裋	-11056
覈	-11057
诟	-11058
谺	-11059
郇	-11060
郿	-11061
醭	-11062
醵	-11063
锉	-11064
閧	-11065
隩	-11066
鞴	-11067
飶	-11068
驲	-11069
骍	-11070
髹	-11071
髼	-11072
黧	-11073
䬃	-11074
仃	-11075
侗	-11076
儤	-11077
凘	-11078
剽	-11079
埠	-11080
塼	-11081
姱	-11082
恊	-11083
愊	-11084
戳	-11085
扯	-11086
抓	-11087
挚	-11088
擂	-11089
桠	-11090
梏	-11091
槱	-11092
沲	-11093
淦	-11094
渣	-11095
渲	-11096
湎	-11097
潾	-11098
灸	-11099
爝	-11100
猢	-11101
眊	-11102
矞	-11103
窳	-11104
竛	-11105
萚	-11106
蠕	-11107
衩	-11108
诂	-11109
诹	-11110
谌	-11111
赳	-11112
踣	-11113
踸	-11114
轹	-11115
郛	-11116
镒	-11117
魇	-11118
鲎	-11119
鳗	-11120
䧺	-11121
冑	-11122
哆	-11123
哳	-11124
唁	-11125
嗛	-11126
嘷	-11127
圳	-11128
坯	-11129
墄	-11130
嫜	-11131
嫫	-11132
尅	-11133
巂	-11134
忾	-11135
懈	-11136
捺	-11137
擐	-11138
杙	-11139
杮	-11140
枘	-11141
殂	-11142
汽	-11143
渫	-11144
湑	-11145
瀍	-11146
灊	-11147
牸	-11148
獒	-11149
獾	-11150
珣	-11151
疥	-11152
痈	-11153
瘥	-11154
盦	-11155
硝	-11156
秬	-11157
竮	-11158
糯	-11159
缵	-11160
腆	-11161
艚	-11162
茇	-11163
蕈	-11164
蚱	-11165
蝤	-11166
蠙	-11167
襚	-11168
詟	-11169
谮	-11170
谽	-11171
赙	-11172
趄	-11173
辫	-11174
郯	-11175
铏	-11176
铠	-11177
阄	-11178
颣	-11179
飋	-11180
饾	-11181
骰	-11182
黮	-11183
亶	-11184
伾	-11185
呓	-11186
嘬	-11187
噞	-11188
坷	-11189
埘	-11190
妈	-11191
姆	-11192
姣	-11193
媾	-11194
帡	-11195
彯	-11196
很	-11197
愒	-11198
扮	-11199
晾	-11200
柅	-11201
梃	-11202
橦	-11203
橱	-11204
歪	-11205
洱	-11206
渼	-11207
漻	-11208
烙	-11209
狰	-11210
瑗	-11211
盅	-11212
眬	-11213
睒	-11214
票	-11215
糍	-11216
膈	-11217
膰	-11218
芎	-11219
芮	-11220
葹	-11221
蒉	-11222
蔿	-11223
薿	-11224
蝘	-11225
詈	-11226
诼	-11227
诽	-11228
豅	-11229
逄	-11230
邾	-11231
镪	-11232
陜	-11233
駃	-11234
髽	-11235
鲀	-11236
鳝	-11237
鼗	-11238
亵	-11239
佾	-11240
侩	-11241
僖	-11242
僾	-11243
剉	-11244
劭	-11245
哕	-11246
喇	-11247
喊	-11248
嘅	-11249
嚏	-11250
堇	-11251
娣	-11252
廌	-11253
掊	-11254
楦	-11255
殪	-11256
洹	-11257
涑	-11258
涷	-11259
溲	-11260
犷	-11261
珓	-11262
瓤	-11263
癫	-11264
瞪	-11265
碉	-11266
穜	-11267
窀	-11268
窼	-11269
篯	-11270
籊	-11271
翙	-11272
胛	-11273
艖	-11274
艨	-11275
芑	-11276
蒟	-11277
蓣	-11278
薅	-11279
薶	-11280
薾	-11281
裼	-11282
訇	-11283
谳	-11284
赜	-11285
趑	-11286
蹂	-11287
轘	-11288
郏	-11289
鈯	-11290
阯	-11291
雘	-11292
餗	-11293
骷	-11294
鮀	-11295
鲔	-11296
鴃	-11297
鼷	-11298
龆	-11299
龈	-11300
兖	-11301
刎	-11302
剿	-11303
匜	-11304
吽	-11305
咂	-11306
喏	-11307
嗾	-11308
嚘	-11309
囱	-11310
姤	-11311
媭	-11312
嬛	-11313
嬲	-11314
怃	-11315
恧	-11316
惴	-11317
慱	-11318
懔	-11319
戺	-11320
抨	-11321
搂	-11322
搰	-11323
撺	-11324
枹	-11325
栟	-11326
桹	-11327
榨	-11328
氂	-11329
洿	-11330
濈	-11331
熔	-11332
燖	-11333
爹	-11334
狲	-11335
瓻	-11336
痗	-11337
砉	-11338
硫	-11339
碰	-11340
祏	-11341
竁	-11342
竣	-11343
筲	-11344
簜	-11345
籼	-11346
罐	-11347
胖	-11348
舀	-11349
舱	-11350
蛀	-11351
蜾	-11352
蝈	-11353
蝮	-11354
螃	-11355
袨	-11356
躐	-11357
轣	-11358
辏	-11359
郝	-11360
醄	-11361
锈	-11362
阘	-11363
靸	-11364
韡	-11365
餮	-11366
鬉	-11367
鲐	-11368
鵔	-11369
鹕	-11370
㦬	-11371
㵳	-11372
䆗	-11373
䌫	-11374
䑳	-11375
侦	-11376
偓	-11377
儱	-11378
厝	-11379
呴	-11380
咙	-11381
唏	-11382
喣	-11383
囝	-11384
奼	-11385
妳	-11386
嫚	-11387
嵲	-11388
悫	-11389
惙	-11390
慌	-11391
挪	-11392
捶	-11393
揎	-11394
摭	-11395
撅	-11396
杌	-11397
栲	-11398
桎	-11399
棫	-11400
榉	-11401
殓	-11402
沣	-11403
洴	-11404
涬	-11405
潩	-11406
炸	-11407
焄	-11408
狝	-11409
瑳	-11410
瘏	-11411
矇	-11412
硁	-11413
礁	-11414
礽	-11415
祊	-11416
簠	-11417
絙	-11418
绌	-11419
绞	-11420
罫	-11421
耞	-11422
膋	-11423
艅	-11424
菇	-11425
虩	-11426
螣	-11427
讪	-11428
谇	-11429
躏	-11430
軥	-11431
鍮	-11432
锜	-11433
镶	-11434
阽	-11435
靧	-11436
颀	-11437
颒	-11438
颧	-11439
馒	-11440
髧	-11441
鬵	-11442
鲞	-11443
鸐	-11444
麴	-11445
{	-11446
}	-11447
㩦	-11448
㬉	-11449
䰐	-11450
倨	-11451
傃	-11452
儇	-11453
吩	-11454
吷	-11455
唔	-11456
啑	-11457
娵	-11458
尿	-11459
弑	-11460
悢	-11461
憸	-11462
戋	-11463
拇	-11464
搯	-11465
搽	-11466
昩	-11467
枲	-11468
桉	-11469
棙	-11470
椑	-11471
氉	-11472
汕	-11473
沕	-11474
沜	-11475
沨	-11476
浟	-11477
涢	-11478
淈	-11479
澼	-11480
濊	-11481
瀌	-11482
熉	-11483
爚	-11484
珷	-11485
畇	-11486
痂	-11487
睐	-11488
硉	-11489
磾	-11490
窬	-11491
笴	-11492
簳	-11493
籓	-11494
籹	-11495
粔	-11496
綮	-11497
綷	-11498
緤	-11499
绹	-11500
羑	-11501
耇	-11502
肫	-11503
臕	-11504
芘	-11505
荈	-11506
莟	-11507
蒪	-11508
蓘	-11509
蔘	-11510
薖	-11511
蛑	-11512
蜎	-11513
蜣	-11514
螓	-11515
袤	-11516
袿	-11517
觋	-11518
謇	-11519
貙	-11520
赆	-11521
跽	-11522
轾	-11523
辒	-11524
逤	-11525
遴	-11526
酕	-11527
钴	-11528
镃	-11529
阼	-11530
鞑	-11531
页	-11532
饟	-11533
饩	-11534
馅	-11535
驸	-11536
骙	-11537
鬌	-11538
鲟	-11539
鲧	-11540
鲽	-11541
鹒	-11542
麸	-11543
●	-11544
䍥	-11545
䙰	-11546
䰄	-11547
伋	-11548
佪	-11549
侁	-11550
俐	-11551
劓	-11552
厘	-11553
嘎	-11554
嚚	-11555
壝	-11556
够	-11557
妣	-11558
岔	-11559
崱	-11560
幨	-11561
彄	-11562
忮	-11563
忸	-11564
怗	-11565
懡	-11566
扭	-11567
拮	-11568
撝	-11569
昳	-11570
曚	-11571
棰	-11572
槠	-11573
檛	-11574
殍	-11575
殛	-11576
氄	-11577
洏	-11578
洫	-11579
烤	-11580
煴	-11581
狴	-11582
玞	-11583
瑀	-11584
璅	-11585
疍	-11586
疽	-11587
痰	-11588
癞	-11589
眙	-11590
睚	-11591
瞭	-11592
磥	-11593
笯	-11594
糅	-11595
纆	-11596
纑	-11597
纕	-11598
绐	-11599
缋	-11600
肰	-11601
膨	-11602
臛	-11603
菭	-11604
菶	-11605
蓺	-11606
虡	-11607
蜞	-11608
蟛	-11609
蠋	-11610
蠛	-11611
褛	-11612
讦	-11613
趠	-11614
輤	-11615
邝	-11616
郓	-11617
酖	-11618
鉧	-11619
鐍	-11620
霉	-11621
頖	-11622
顗	-11623
麚	-11624
黁	-11625
黳	-11626
㛹	-11627
䨴	-11628
份	-11629
佽	-11630
倬	-11631
偲	-11632
傒	-11633
僶	-11634
劘	-11635
劵	-11636
卌	-11637
卡	-11638
呿	-11639
咈	-11640
唵	-11641
喓	-11642
喽	-11643
嗑	-11644
嚭	-11645
奭	-11646
岈	-11647
帧	-11648
庳	-11649
弰	-11650
恚	-11651
憖	-11652
拐	-11653
揔	-11654
揫	-11655
揲	-11656
晟	-11657
杻	-11658
栳	-11659
楗	-11660
歠	-11661
洌	-11662
洺	-11663
浜	-11664
滢	-11665
濉	-11666
焜	-11667
牗	-11668
犗	-11669
猘	-11670
猰	-11671
獦	-11672
琦	-11673
疹	-11674
瞀	-11675
矹	-11676
碟	-11677
祎	-11678
禆	-11679
稛	-11680
箄	-11681
絁	-11682
緺	-11683
罶	-11684
翌	-11685
胀	-11686
胾	-11687
腌	-11688
臀	-11689
臬	-11690
芣	-11691
芧	-11692
苶	-11693
莛	-11694
藷	-11695
蛭	-11696
螬	-11697
袱	-11698
觿	-11699
訚	-11700
詶	-11701
貐	-11702
賨	-11703
踦	-11704
蹡	-11705
蹯	-11706
轑	-11707
辆	-11708
钮	-11709
锭	-11710
镠	-11711
阈	-11712
雇	-11713
餤	-11714
馡	-11715
骜	-11716
骹	-11717
鲦	-11718
鲩	-11719
鳍	-11720
鵙	-11721
鸸	-11722
龂	-11723
龠	-11724
㝢	-11725
㹀	-11726
䗫	-11727
䰒	-11728
丢	-11729
俣	-11730
儳	-11731
凳	-11732
匊	-11733
吧	-11734
吪	-11735
呐	-11736
喨	-11737
噜	-11738
嚎	-11739
囋	-11740
圠	-11741
坍	-11742
垡	-11743
垲	-11744
埸	-11745
媻	-11746
嬿	-11747
孛	-11748
宄	-11749
寀	-11750
岊	-11751
岕	-11752
廋	-11753
廞	-11754
彖	-11755
恝	-11756
惔	-11757
愫	-11758
慁	-11759
憭	-11760
憯	-11761
挦	-11762
捭	-11763
揪	-11764
昱	-11765
晢	-11766
暹	-11767
曕	-11768
栌	-11769
桫	-11770
梼	-11771
楛	-11772
楥	-11773
楪	-11774
樕	-11775
橇	-11776
橤	-11777
檨	-11778
沗	-11779
沭	-11780
涏	-11781
滫	-11782
潍	-11783
焞	-11784
犵	-11785
猃	-11786
獝	-11787
瑽	-11788
瓘	-11789
痿	-11790
瘟	-11791
眶	-11792
矬	-11793
码	-11794
碡	-11795
稣	-11796
穮	-11797
笨	-11798
箍	-11799
箾	-11800
粞	-11801
糺	-11802
緉	-11803
缜	-11804
缿	-11805
羜	-11806
脝	-11807
莴	-11808
蒳	-11809
蓖	-11810
虓	-11811
蝥	-11812
蟊	-11813
袗	-11814
襭	-11815
诊	-11816
诿	-11817
谞	-11818
赩	-11819
踝	-11820
轕	-11821
遫	-11822
邽	-11823
酦	-11824
鎞	-11825
镀	-11826
镈	-11827
阋	-11828
霮	-11829
靮	-11830
靺	-11831
鞺	-11832
頀	-11833
頞	-11834
饪	-11835
駉	-11836
騋	-11837
騩	-11838
鬈	-11839
魋	-11840
鱮	-11841
鲨	-11842
鸃	-11843
鸨	-11844
鸹	-11845
鹌	-11846
㜷	-11847
㠝	-11848
㩳	-11849
㪷	-11850
㬠	-11851
䭔	-11852
䱥	-11853
䲭	-11854
䴥	-11855
勷	-11856
咚	-11857
噙	-11858
噱	-11859
嚄	-11860
嚗	-11861
圬	-11862
埔	-11863
媳	-11864
岝	-11865
嵊	-11866
庋	-11867
忭	-11868
惛	-11869
憙	-11870
挏	-11871
挡	-11872
捆	-11873
掎	-11874
撙	-11875
擗	-11876
棁	-11877
榑	-11878
檎	-11879
泂	-11880
滘	-11881
滮	-11882
漶	-11883
灂	-11884
燉	-11885
爞	-11886
狌	-11887
猋	-11888
獞	-11889
玆	-11890
玎	-11891
瑑	-11892
疯	-11893
痁	-11894
矄	-11895
秒	-11896
筳	-11897
箙	-11898
籺	-11899
紊	-11900
纴	-11901
绖	-11902
缞	-11903
耙	-11904
胠	-11905
膑	-11906
臃	-11907
荍	-11908
菆	-11909
蚣	-11910
蛏	-11911
蛴	-11912
袝	-11913
诐	-11914
豭	-11915
跷	-11916
蹛	-11917
蹢	-11918
轵	-11919
遛	-11920
邬	-11921
郐	-11922
酃	-11923
鋗	-11924
鋹	-11925
阂	-11926
靶	-11927
鞳	-11928
餈	-11929
餦	-11930
餭	-11931
饙	-11932
馺	-11933
駬	-11934
鬑	-11935
鬷	-11936
鷾	-11937
麃	-11938
黐	-11939
黪	-11940
鼌	-11941
』	-11942
㟙	-11943
㹠	-11944
䋏	-11945
䕷	-11946
䭀	-11947
䳇	-11948
伣	-11949
侐	-11950
侜	-11951
偾	-11952
冁	-11953
劻	-11954
卨	-11955
唝	-11956
嗉	-11957
埵	-11958
墁	-11959
妮	-11960
嫏	-11961
嫭	-11962
屁	-11963
屴	-11964
岢	-11965
崃	-11966
嵁	-11967
嵏	-11968
庥	-11969
廱	-11970
弨	-11971
弮	-11972
彧	-11973
忐	-11974
忑	-11975
怔	-11976
悻	-11977
愎	-11978
憹	-11979
懑	-11980
拴	-11981
拷	-11982
挖	-11983
挣	-11984
捽	-11985
敔	-11986
敩	-11987
斮	-11988
晛	-11989
朏	-11990
朐	-11991
椤	-11992
楙	-11993
橧	-11994
橼	-11995
